<unk>	0
<s>	0
</s>	0
▁	-2.5304
s	-3.76909
get	-4.68384
set	-4.86497
▁get	-4.96636
e	-5.11968
d	-5.14963
info	-5.35151
to	-5.38468
▁set	-5.56399
list	-5.59092
type	-5.62458
c	-5.63505
r	-5.67719
p	-5.69431
t	-5.76588
data	-5.81988
file	-5.82509
x	-5.82945
id	-5.85532
init	-5.85967
in	-5.87846
f	-5.88755
name	-5.93286
a	-5.96866
ed	-5.98915
is	-6.00894
i	-6.05512
▁m	-6.09082
new	-6.1388
ing	-6.15009
from	-6.15501
add	-6.17453
m	-6.19718
value	-6.20225
string	-6.21268
on	-6.22058
v	-6.23422
er	-6.2419
b	-6.24678
w	-6.2948
map	-6.299
▁is	-6.32792
key	-6.34253
n	-6.35459
read	-6.35488
text	-6.3673
g	-6.37165
event	-6.392
l	-6.39921
create	-6.43415
node	-6.43494
for	-6.44466
T	-6.44859
object	-6.47258
y	-6.47402
state	-6.50627
table	-6.52255
item	-6.54012
array	-6.54859
S	-6.5496
size	-6.55279
▁g	-6.57813
class	-6.58853
h	-6.5988
and	-6.60399
int	-6.60749
▁add	-6.60997
write	-6.62407
path	-6.62432
cb	-6.62614
time	-6.64179
index	-6.6492
view	-6.65329
line	-6.66022
entry	-6.66253
▁c	-6.67012
free	-6.6797
context	-6.68678
with	-6.69514
k	-6.69665
or	-6.70408
re	-6.70589
filter	-6.71173
▁create	-6.71719
element	-6.72187
error	-6.72418
u	-6.7262
image	-6.73391
update	-6.73602
o	-6.7497
test	-6.75354
of	-6.79248
count	-6.79896
un	-6.80742
start	-6.81158
window	-6.81949
check	-6.83236
z	-6.83374
config	-6.84222
all	-6.85327
field	-6.85328
at	-6.86096
▁on	-6.86215
buffer	-6.88762
message	-6.89106
request	-6.89126
base	-6.90473
group	-6.90689
end	-6.90716
mode	-6.9099
exception	-6.91291
▁my	-6.92269
print	-6.92926
callback	-6.93772
io	-6.94073
no	-6.94359
q	-6.94531
source	-6.9482
command	-6.94824
copy	-6.95102
color	-6.95246
tree	-6.95825
manager	-6.9642
handler	-6.96771
▁p	-6.97632
sub	-6.97993
cache	-6.98275
action	-7.01395
block	-7.01581
stream	-7.01714
changed	-7.01784
log	-7.02899
str	-7.03028
dialog	-7.03559
load	-7.0356
by	-7.03879
as	-7.04234
open	-7.05092
var	-7.05683
page	-7.06139
op	-7.06347
client	-7.06967
frame	-7.07585
impl	-7.07826
▁do	-7.08067
model	-7.08154
al	-7.0884
find	-7.08874
service	-7.10279
db	-7.10849
dir	-7.122
▁f	-7.12266
status	-7.1274
user	-7.12839
query	-7.13048
remove	-7.13401
able	-7.13487
▁x	-7.13732
code	-7.13976
point	-7.13995
j	-7.14249
▁i	-7.14271
server	-7.14871
A	-7.1637
parse	-7.16387
input	-7.16398
result	-7.16603
char	-7.18277
out	-7.19338
▁update	-7.19586
delete	-7.20634
C	-7.20767
call	-7.21195
range	-7.23423
▁new	-7.23756
property	-7.24164
function	-7.24411
output	-7.2448
ref	-7.24984
button	-7.25532
proxy	-7.25597
mod	-7.25944
format	-7.26204
vector	-7.27039
search	-7.27154
func	-7.27836
B	-7.28008
process	-7.28406
port	-7.28548
default	-7.28584
destroy	-7.28678
box	-7.29111
▁globalsubizn	-7.29692
header	-7.2989
thread	-7.30126
L	-7.30161
handle	-7.3019
P	-7.30468
next	-7.30704
ip	-7.31098
close	-7.31803
zi	-7.32317
▁caml	-7.32457
▁check	-7.32628
link	-7.33382
method	-7.33758
label	-7.34161
up	-7.35166
D	-7.35263
show	-7.3536
device	-7.35582
widget	-7.3563
change	-7.35705
tag	-7.361
hash	-7.36991
real	-7.37737
response	-7.38238
if	-7.38411
row	-7.39057
cmd	-7.39096
style	-7.39245
▁find	-7.39422
local	-7.39444
▁parse	-7.39837
version	-7.40419
max	-7.40637
draw	-7.41005
xml	-7.4252
store	-7.4258
▁l	-7.43153
top	-7.43535
factory	-7.44447
Get	-7.45482
do	-7.45525
selection	-7.46693
length	-7.4701
F	-7.48071
float	-7.48109
url	-7.48375
position	-7.48905
session	-7.49059
display	-7.49212
ch	-7.49303
msg	-7.49344
▁read	-7.49971
task	-7.5002
connection	-7.50162
put	-7.50208
font	-7.50224
attribute	-7.50357
finalize	-7.51392
plugin	-7.51527
gettype	-7.5156
resource	-7.51821
▁t	-7.51881
send	-7.519
one	-7.52257
▁d	-7.5284
M	-7.53042
menu	-7.53501
select	-7.53776
options	-7.5386
internal	-7.54125
number	-7.54619
channel	-7.54797
control	-7.55021
make	-7.55026
co	-7.55734
clear	-7.55796
module	-7.5644
en	-7.56897
lib	-7.56918
register	-7.57159
E	-7.57847
num	-7.5843
column	-7.58604
content	-7.58802
queue	-7.58861
parser	-7.59339
matrix	-7.59441
offset	-7.59604
lock	-7.59671
util	-7.60303
sync	-7.60313
sptr	-7.61097
▁v	-7.61211
app	-7.6153
target	-7.6169
save	-7.61942
ic	-7.62121
layout	-7.62206
min	-7.6233
ui	-7.63404
reset	-7.63636
I	-7.63868
▁delete	-7.64809
instance	-7.64964
cc	-7.65232
le	-7.66292
settings	-7.6635
reader	-7.6652
level	-7.66699
gen	-7.67112
ext	-7.67226
icon	-7.67302
tab	-7.67655
▁handle	-7.67839
▁write	-7.68289
val	-7.68495
st	-7.68564
▁init	-7.68661
pos	-7.68981
alloc	-7.69191
▁re	-7.69382
net	-7.70037
parameter	-7.70082
root	-7.70267
date	-7.70798
graph	-7.71061
double	-7.71243
▁test	-7.7132
R	-7.71689
builder	-7.71723
el	-7.71758
last	-7.7188
container	-7.71927
▁gl	-7.72375
child	-7.72377
attr	-7.7248
gl	-7.72993
run	-7.73077
properties	-7.73448
es	-7.73573
▁b	-7.73628
provider	-7.73784
it	-7.7399
fs	-7.7403
interface	-7.74371
build	-7.74492
def	-7.74594
token	-7.74777
ex	-7.74796
▁has	-7.74842
has	-7.74851
width	-7.75471
insert	-7.75623
▁make	-7.75999
▁print	-7.77
long	-7.77226
obj	-7.77558
not	-7.77687
match	-7.77962
arg	-7.78213
param	-7.78301
ly	-7.78442
use	-7.78552
mask	-7.78792
▁gtk	-7.78965
buf	-7.79128
cell	-7.79739
mem	-7.80229
address	-7.80588
reference	-7.80782
▁z	-7.80804
core	-7.81697
▁stub	-7.81702
rec	-7.81735
fn	-7.81741
editor	-7.818
▁wrap	-7.81814
G	-7.81954
record	-7.82144
host	-7.82154
move	-7.82616
helper	-7.82835
gtk	-7.82972
option	-7.83007
im	-7.83518
space	-7.8382
order	-7.8406
job	-7.84532
dev	-7.85077
listener	-7.85181
X	-7.8521
multi	-7.85388
location	-7.85482
enum	-7.8551
bar	-7.8553
sort	-7.85574
▁remove	-7.85672
stack	-7.85672
stop	-7.85768
▁gen	-7.85977
ptr	-7.85999
▁k	-7.86105
▁a	-7.86164
cursor	-7.86842
component	-7.87012
release	-7.8738
access	-7.87859
setup	-7.88049
W	-7.88083
scale	-7.88288
de	-7.88297
auto	-7.88862
edit	-7.88879
▁show	-7.9007
an	-7.90234
▁q	-7.904
iter	-7.90573
enabled	-7.90749
variable	-7.90799
H	-7.90868
spec	-7.91587
proc	-7.91689
ANSISTRING	-7.91714
configuration	-7.92126
document	-7.9223
V	-7.92236
iterator	-7.92285
ation	-7.92887
expr	-7.93015
sp	-7.93306
unit	-7.93309
stats	-7.93419
writer	-7.93597
current	-7.93623
selected	-7.93774
first	-7.94148
system	-7.94152
GET	-7.94303
post	-7.94391
ns	-7.94469
classinterninit	-7.94619
▁load	-7.9486
reg	-7.94917
dump	-7.95496
grid	-7.9558
fill	-7.95959
scope	-7.96049
▁r	-7.9621
memory	-7.96231
entity	-7.96255
word	-7.96309
metadata	-7.96836
off	-7.96887
panel	-7.97003
title	-7.97437
_	-7.97592
values	-7.97606
pre	-7.97709
compare	-7.97746
surface	-7.97919
cast	-7.97926
rule	-7.97983
uri	-7.98007
▁process	-7.98284
script	-7.98311
loop	-7.98555
connect	-7.98558
the	-7.98903
Set	-7.99316
bit	-7.99407
expression	-7.99921
template	-8.00072
scan	-8.00074
▁n	-8.00159
sequence	-8.00462
parent	-8.0094
BOOLEAN	-8.01136
simple	-8.01733
finish	-8.01817
ap	-8.01924
gr	-8.01989
env	-8.02065
▁vtk	-8.02267
▁default	-8.02267
filename	-8.02274
socket	-8.02371
fd	-8.02653
pc	-8.03154
main	-8.03222
region	-8.03228
▁h	-8.03482
timer	-8.03549
right	-8.03728
types	-8.03947
ad	-8.04266
description	-8.04515
lookup	-8.0493
left	-8.05286
append	-8.0535
params	-8.05916
global	-8.0593
bytes	-8.06162
mp	-8.06446
debug	-8.06474
pattern	-8.06596
enable	-8.06825
area	-8.06939
form	-8.07023
transform	-8.07148
operation	-8.07169
decode	-8.07433
notify	-8.07465
ECT	-8.07533
part	-8.07637
wrapper	-8.07676
common	-8.0781
constructor	-8.07819
pool	-8.08008
audio	-8.08124
track	-8.08262
▁send	-8.0835
opt	-8.08368
▁u	-8.08369
▁build	-8.08478
collection	-8.08562
us	-8.08621
null	-8.08727
N	-8.08739
raw	-8.08861
files	-8.08876
cmp	-8.08928
down	-8.09137
▁image	-8.09552
zu	-8.09604
remote	-8.09724
timeout	-8.09967
ro	-8.10796
doc	-8.1082
back	-8.10922
gc	-8.11033
edge	-8.11097
ent	-8.11152
addr	-8.11197
render	-8.11272
▁xml	-8.11384
cl	-8.11493
pack	-8.11644
after	-8.1181
SET	-8.12329
layer	-8.1236
volume	-8.12417
folder	-8.12529
directory	-8.1281
byte	-8.13102
async	-8.13284
mark	-8.13498
stat	-8.13704
media	-8.13726
pass	-8.13731
res	-8.13937
policy	-8.13985
rect	-8.14223
texture	-8.14345
const	-8.14547
ar	-8.14706
prop	-8.14772
classinit	-8.14791
pointer	-8.1484
▁draw	-8.15003
symbol	-8.15084
U	-8.15169
am	-8.15582
storage	-8.15687
flags	-8.1632
generic	-8.16405
active	-8.16445
flag	-8.16581
mb	-8.16676
project	-8.17366
col	-8.17489
complete	-8.17568
non	-8.17741
screen	-8.1787
activate	-8.17987
ion	-8.18236
border	-8.18509
signal	-8.18596
trace	-8.18735
mm	-8.18942
domain	-8.19304
per	-8.19391
push	-8.19477
height	-8.19553
packet	-8.1974
fun	-8.19791
tr	-8.19816
flush	-8.19849
rate	-8.19874
▁free	-8.19912
bean	-8.19976
getproperty	-8.20091
bb	-8.20191
video	-8.20225
▁file	-8.20248
body	-8.2026
▁slot	-8.20519
crc	-8.20642
▁compute	-8.20677
import	-8.2069
attributes	-8.2096
be	-8.21164
step	-8.2124
utils	-8.21459
scroll	-8.21478
section	-8.21767
▁select	-8.21798
pt	-8.21954
information	-8.21963
report	-8.22022
empty	-8.22287
tx	-8.2239
exec	-8.22779
os	-8.22782
▁j	-8.22796
del	-8.22811
ul	-8.22829
auth	-8.23138
profile	-8.23392
pr	-8.23645
pp	-8.23904
integer	-8.2393
th	-8.23931
LONGINT	-8.23951
iv	-8.24225
engine	-8.24372
▁net	-8.24459
player	-8.24597
ok	-8.24771
rt	-8.24774
▁un	-8.24775
et	-8.24984
eq	-8.25123
html	-8.25341
prefix	-8.25345
Re	-8.2536
names	-8.25548
application	-8.2559
descriptor	-8.25772
ac	-8.25956
std	-8.26062
extension	-8.26224
split	-8.26314
ff	-8.26333
tool	-8.26489
len	-8.27356
conf	-8.2744
exp	-8.27446
args	-8.27558
vm	-8.27716
seq	-8.27869
▁cmd	-8.28019
work	-8.28195
comp	-8.28538
setproperty	-8.28557
▁o	-8.28677
controller	-8.28717
parameters	-8.28729
ml	-8.2876
full	-8.29179
stub	-8.2918
▁clear	-8.2924
exit	-8.29365
slice	-8.29556
ST	-8.29704
zz	-8.29706
meta	-8.29727
term	-8.2996
ms	-8.29981
desc	-8.30111
equal	-8.30162
convert	-8.30357
▁assert	-8.30403
api	-8.30664
fetch	-8.30749
join	-8.30762
return	-8.30798
single	-8.31234
wait	-8.31643
definition	-8.31766
vec	-8.31904
history	-8.31927
O	-8.32006
short	-8.32012
ra	-8.32241
pair	-8.32273
visible	-8.32573
struct	-8.32821
done	-8.33128
▁winestub	-8.33372
shape	-8.33514
zuzdc	-8.33737
network	-8.34066
▁save	-8.34258
merge	-8.3426
di	-8.34551
sample	-8.34641
▁ns	-8.35028
sink	-8.35085
li	-8.35231
lo	-8.35267
win	-8.35454
encode	-8.35858
case	-8.35928
focus	-8.36068
member	-8.36209
progress	-8.36246
▁http	-8.36513
▁w	-8.36552
json	-8.37148
cp	-8.37158
File	-8.37198
man	-8.38407
power	-8.38656
con	-8.38978
over	-8.39112
trans	-8.39198
zero	-8.39273
bool	-8.39368
probe	-8.39964
▁xs	-8.40059
reply	-8.4025
http	-8.40311
▁db	-8.40316
sys	-8.40546
ts	-8.4068
account	-8.40844
help	-8.40852
interval	-8.41045
custom	-8.41062
limit	-8.41317
bin	-8.41477
cleanup	-8.41718
renderer	-8.41869
schema	-8.42653
mk	-8.42743
shift	-8.42948
si	-8.43278
transaction	-8.43298
card	-8.43483
▁open	-8.43523
go	-8.43537
gui	-8.43708
decl	-8.43949
tostring	-8.44029
switch	-8.44207
points	-8.44227
clicked	-8.44451
▁html	-8.44678
ast	-8.44751
static	-8.44777
only	-8.44791
To	-8.44969
representation	-8.45022
cap	-8.4509
drag	-8.45143
mac	-8.45157
ab	-8.45364
sql	-8.45427
pl	-8.45822
ctrl	-8.45833
chain	-8.45862
hi	-8.45915
monitor	-8.45969
usage	-8.46071
random	-8.46158
complex	-8.46267
me	-8.46301
can	-8.46334
err	-8.4643
mapping	-8.46444
comment	-8.47244
▁start	-8.47442
ev	-8.47452
▁sm	-8.47596
statement	-8.477
program	-8.47732
ps	-8.47745
▁generate	-8.48088
language	-8.48145
▁js	-8.48208
chunk	-8.48241
pop	-8.48259
inner	-8.48356
private	-8.48371
sh	-8.48447
normal	-8.48744
database	-8.48765
before	-8.49051
▁register	-8.49178
slot	-8.49193
apply	-8.49406
ct	-8.49473
▁sidlxrmi	-8.49493
begin	-8.49519
driver	-8.49535
package	-8.49837
vertex	-8.49867
game	-8.50069
password	-8.50154
loc	-8.50196
▁current	-8.50286
rm	-8.50375
light	-8.50412
dc	-8.5072
il	-8.51027
▁user	-8.51068
bind	-8.51121
tp	-8.51145
segment	-8.51226
sc	-8.51268
diff	-8.51309
▁copy	-8.51348
ER	-8.51369
feature	-8.51483
ib	-8.51586
replace	-8.51599
ri	-8.51701
Y	-8.51873
category	-8.51904
▁fo	-8.52028
com	-8.52123
keys	-8.52163
activity	-8.52463
est	-8.52464
cpu	-8.52477
la	-8.5279
ce	-8.52872
py	-8.52876
compute	-8.52901
head	-8.52999
plot	-8.53064
binary	-8.5313
background	-8.533
▁max	-8.53558
fields	-8.53601
List	-8.53695
▁no	-8.54018
commit	-8.54129
cancel	-8.54165
role	-8.54247
md	-8.54329
ci	-8.54372
sound	-8.54559
▁convert	-8.5464
ge	-8.54746
alias	-8.54794
binding	-8.54809
um	-8.54835
initialize	-8.5503
curve	-8.5511
sm	-8.5515
mat	-8.55156
atom	-8.55157
selector	-8.55229
mapper	-8.55331
cm	-8.55359
available	-8.55597
sum	-8.55606
override	-8.55698
protocol	-8.55968
delay	-8.56316
ewriteptr	-8.56433
src	-8.56492
adapter	-8.56527
bi	-8.56672
flow	-8.56735
hw	-8.56813
kernel	-8.56885
sig	-8.57089
dup	-8.5722
fp	-8.57287
generator	-8.57356
score	-8.57502
mul	-8.57667
mouse	-8.5791
preview	-8.58077
fix	-8.5818
da	-8.58188
ta	-8.58197
ig	-8.58268
constant	-8.58285
req	-8.58419
▁sp	-8.58462
avg	-8.58486
▁setup	-8.58744
sse	-8.58846
ize	-8.59103
ep	-8.59123
loader	-8.59247
ids	-8.59602
ir	-8.59639
encoding	-8.59666
swap	-8.59759
mo	-8.59847
dot	-8.59898
mi	-8.59915
construct	-8.59937
items	-8.59938
distance	-8.6006
ca	-8.60398
pixel	-8.60424
▁kernel	-8.60524
cluster	-8.6061
pdu	-8.60642
aux	-8.6069
uint	-8.60692
wrap	-8.60713
valid	-8.60865
drop	-8.6096
generate	-8.60966
nt	-8.61017
any	-8.61246
ob	-8.61273
LIST	-8.61716
dec	-8.61777
ma	-8.619
cat	-8.62232
eval	-8.62514
dp	-8.63009
processor	-8.63296
sw	-8.633
external	-8.63421
▁log	-8.63573
ment	-8.63631
animation	-8.63642
bits	-8.63893
library	-8.63909
support	-8.64001
▁emit	-8.64167
boolean	-8.64255
geometry	-8.64336
poll	-8.64366
forward	-8.64489
om	-8.64565
▁lib	-8.64624
▁text	-8.64797
isa	-8.648
ia	-8.64806
ary	-8.64827
Class	-8.65154
Name	-8.65184
▁snd	-8.65247
scalar	-8.65352
df	-8.65485
sign	-8.65565
mf	-8.65682
annotation	-8.65691
▁reset	-8.65825
cd	-8.65882
▁run	-8.65883
decoder	-8.65896
Create	-8.6602
fragment	-8.66127
identifier	-8.66165
bus	-8.66331
export	-8.66515
old	-8.66519
bitmap	-8.666
fc	-8.66635
utf	-8.6674
shell	-8.66753
clip	-8.66933
rc	-8.67058
▁sc	-8.67064
pad	-8.67146
disk	-8.67178
ll	-8.67394
ol	-8.67394
play	-8.6741
poly	-8.67456
align	-8.67498
seek	-8.67642
dict	-8.6769
ready	-8.67735
route	-8.67819
Data	-8.68017
java	-8.68183
shared	-8.68241
shutdown	-8.68303
bl	-8.68324
globalr	-8.68369
counter	-8.68715
nodes	-8.68741
assign	-8.68897
alpha	-8.68966
where	-8.69031
ive	-8.69037
freq	-8.6906
failed	-8.69142
va	-8.69223
▁dstd	-8.69223
master	-8.69267
sto	-8.69515
native	-8.69807
plane	-8.69858
axis	-8.69945
web	-8.70043
backend	-8.70239
lines	-8.70265
partition	-8.70522
ur	-8.7084
click	-8.70858
tile	-8.71136
face	-8.71148
center	-8.71173
nd	-8.71177
▁num	-8.71248
div	-8.71252
tex	-8.71358
ator	-8.71438
ec	-8.71573
branch	-8.71595
marker	-8.71677
validate	-8.71757
low	-8.71801
sym	-8.71839
transfer	-8.71847
Info	-8.71945
rx	-8.72039
▁de	-8.72061
bo	-8.72071
events	-8.72221
lex	-8.72308
book	-8.72592
zdf	-8.72729
▁expected	-8.72744
namespace	-8.72759
email	-8.72861
he	-8.72881
▁st	-8.72893
Init	-8.72945
emit	-8.73018
ctx	-8.73046
notification	-8.73114
ix	-8.73185
cert	-8.73219
pm	-8.7344
pf	-8.7367
extract	-8.73807
dl	-8.74074
▁dump	-8.74363
ii	-8.74436
rgb	-8.74497
ti	-8.7453
▁sub	-8.74562
K	-8.74567
span	-8.7482
▁gui	-8.74828
fb	-8.74843
refresh	-8.74878
dom	-8.74889
te	-8.74893
zoom	-8.7502
registry	-8.75102
toggle	-8.75152
tuple	-8.75278
researchpo	-8.75279
stiatsgitsrcpats	-8.75301
hwxi	-8.75302
hook	-8.7534
▁last	-8.7536
factor	-8.7573
abs	-8.76042
features	-8.76272
mt	-8.76329
disable	-8.76466
▁app	-8.7657
children	-8.76676
tl	-8.76841
basic	-8.76874
actor	-8.76876
cs	-8.7688
named	-8.7703
used	-8.77039
mc	-8.77148
variant	-8.77218
▁use	-8.77266
dbus	-8.77354
▁dom	-8.77653
act	-8.77752
▁pc	-8.77783
▁apply	-8.77872
po	-8.77899
▁local	-8.77921
direct	-8.77926
completion	-8.77956
sl	-8.78088
note	-8.78283
entries	-8.78315
▁str	-8.78415
worker	-8.78565
vi	-8.78643
xy	-8.78788
ba	-8.78883
▁base	-8.78982
av	-8.79003
execute	-8.79127
resize	-8.7916
timestamp	-8.79253
special	-8.79393
day	-8.79403
bounds	-8.7951
ut	-8.79858
IN	-8.80007
▁put	-8.80225
sa	-8.80239
ne	-8.80352
▁calc	-8.80386
toolbar	-8.8053
▁os	-8.80562
ee	-8.80611
direction	-8.80671
fixed	-8.80679
mesh	-8.80688
DB	-8.80718
paint	-8.80737
argument	-8.8076
em	-8.80917
▁append	-8.80956
▁mp	-8.81005
▁insert	-8.81023
ring	-8.81058
elements	-8.81214
sec	-8.81247
lu	-8.81421
dim	-8.81454
linear	-8.81746
conn	-8.81793
details	-8.81812
glyph	-8.81949
▁py	-8.8208
oc	-8.82543
total	-8.82593
ED	-8.82623
▁L	-8.8268
operator	-8.82831
skip	-8.82934
constraint	-8.83018
download	-8.83071
polygon	-8.83072
In	-8.83081
▁extract	-8.83141
tt	-8.83162
popup	-8.83173
peer	-8.83216
Type	-8.83235
uc	-8.83262
bound	-8.83312
machine	-8.83471
dataset	-8.83553
lp	-8.83778
xn	-8.83904
geom	-8.83939
noutputitems	-8.84082
pi	-8.84134
signature	-8.84158
snapshot	-8.8421
geo	-8.84234
sb	-8.84408
verify	-8.84524
ld	-8.84566
clone	-8.84612
encoder	-8.84697
js	-8.84932
resolve	-8.84941
structure	-8.85093
general	-8.85109
exists	-8.85312
heap	-8.85369
break	-8.8552
identity	-8.85524
dr	-8.85619
angle	-8.85645
ant	-8.85666
temp	-8.85736
ter	-8.85804
recv	-8.85834
cev	-8.85869
▁pl	-8.85922
oo	-8.86069
strategy	-8.86116
lt	-8.86176
▁display	-8.86276
ity	-8.8628
newcommand	-8.86324
so	-8.86385
repository	-8.86546
let	-8.86558
fit	-8.86687
ctl	-8.86798
ng	-8.86916
this	-8.86935
▁client	-8.86983
calendar	-8.8702
expand	-8.87056
pipe	-8.87083
TOB	-8.87106
depth	-8.87115
▁Parrot	-8.87158
prepare	-8.87335
my	-8.87464
character	-8.87489
Add	-8.87567
proto	-8.87593
br	-8.8767
▁change	-8.87681
▁simple	-8.87784
ax	-8.87798
pending	-8.88086
ga	-8.88178
results	-8.88191
menuitem	-8.88357
shader	-8.88357
ot	-8.88524
byname	-8.88559
▁nullgl	-8.88575
aa	-8.88605
required	-8.8868
▁pv	-8.88978
tags	-8.89393
▁action	-8.89513
Un	-8.89532
conv	-8.89579
__	-8.89592
Read	-8.89686
owner	-8.89713
enter	-8.89837
tcp	-8.89925
pin	-8.89977
pv	-8.90089
ck	-8.90092
statistics	-8.90334
▁ui	-8.90343
▁aorai	-8.90777
two	-8.90921
▁filter	-8.90928
browser	-8.90984
preferences	-8.91126
▁gw	-8.91138
▁io	-8.91182
String	-8.91199
indicator	-8.91257
trigger	-8.91298
calc	-8.91303
classes	-8.91423
supported	-8.91495
rl	-8.91503
ess	-8.91594
nv	-8.91605
cfg	-8.91702
safe	-8.91862
cf	-8.91865
extra	-8.91894
threshold	-8.91928
ay	-8.92138
round	-8.92349
site	-8.9239
fx	-8.92408
rel	-8.92462
shadow	-8.92464
▁search	-8.92475
hex	-8.92485
theme	-8.92499
transport	-8.92587
finished	-8.92713
sel	-8.92769
force	-8.92772
added	-8.92774
▁sh	-8.92978
gradient	-8.93005
Object	-8.93141
security	-8.93214
accept	-8.93342
elem	-8.93424
resources	-8.93458
uuid	-8.93462
▁fill	-8.93539
ens	-8.93776
actions	-8.93837
codec	-8.93909
sptrpc	-8.93934
cr	-8.93946
failure	-8.9397
RE	-8.94035
arc	-8.94112
algorithm	-8.94211
cut	-8.94227
pk	-8.94233
▁system	-8.94401
ho	-8.94453
Key	-8.94456
▁multi	-8.94457
usb	-8.9456
resume	-8.946
multiple	-8.9461
effect	-8.94658
▁render	-8.94687
dictionary	-8.94812
rk	-8.94861
TO	-8.95195
▁ff	-8.95331
▁auto	-8.95425
▁mock	-8.95512
tm	-8.95685
idx	-8.95715
▁move	-8.95757
delta	-8.95776
▁remote	-8.95802
unpack	-8.95827
▁XS	-8.95936
macro	-8.95966
mount	-8.96437
condition	-8.96438
swigregister	-8.96468
nl	-8.96576
ha	-8.96617
undo	-8.96866
uid	-8.96881
▁rrc	-8.96891
skeleton	-8.9701
fast	-8.97027
▁wp	-8.97066
weight	-8.97134
final	-8.97154
plan	-8.97244
bc	-8.97377
hint	-8.97398
▁the	-8.9747
watch	-8.97642
xx	-8.9768
mgr	-8.9768
columns	-8.97711
▁sys	-8.97841
bundle	-8.97867
idle	-8.97911
dispose	-8.97965
created	-8.98132
vf	-8.98199
▁cc	-8.98265
initial	-8.9849
fa	-8.98493
▁menu	-8.98522
ops	-8.98566
▁old	-8.98618
blob	-8.98626
ni	-8.98703
▁device	-8.98727
dd	-8.98851
origin	-8.98941
age	-8.99145
lang	-8.99183
dynamic	-8.99311
FILE	-8.99345
▁as	-8.99408
▁can	-8.99528
camera	-8.99531
ht	-8.99574
pci	-8.99622
▁output	-8.99672
capture	-8.99728
ance	-8.99853
clock	-8.99864
self	-9.00064
tf	-9.00415
highlight	-9.00455
duration	-9.00528
instanceinit	-9.00601
fail	-9.00641
pane	-9.00728
bg	-9.0074
band	-9.00959
restore	-9.00993
enc	-9.01002
na	-9.01025
▁map	-9.01199
▁call	-9.01253
▁java	-9.01651
ft	-9.01675
unicode	-9.0174
visitor	-9.01854
phase	-9.01863
np	-9.01871
inline	-9.01994
DO	-9.02046
rp	-9.02116
stmt	-9.0221
super	-9.02228
primitive	-9.02251
Text	-9.02301
transition	-9.0233
foo	-9.02339
ctor	-9.02373
zip	-9.02387
material	-9.02419
logger	-9.02452
gt	-9.02487
▁si	-9.02536
▁pre	-9.0254
▁sql	-9.02661
▁vala	-9.02741
▁nm	-9.02818
bottom	-9.02955
sin	-9.03039
plus	-9.03069
▁config	-9.03167
fold	-9.03178
rows	-9.03301
other	-9.03366
ai	-9.03367
disconnect	-9.03434
serial	-9.03488
Window	-9.03522
od	-9.03535
tri	-9.03631
▁graph	-9.0369
setting	-9.03789
inter	-9.03804
rf	-9.03963
zone	-9.03993
rd	-9.04083
product	-9.04086
agent	-9.04203
lexer	-9.04207
dm	-9.04397
fmt	-9.04521
batch	-9.04545
summary	-9.04552
priority	-9.04639
▁aj	-9.04723
expected	-9.04739
par	-9.0474
▁msg	-9.04808
▁edit	-9.04853
dist	-9.04863
same	-9.05031
red	-9.05063
▁S	-9.05086
cond	-9.05188
messages	-9.05209
reverse	-9.0523
▁Wise	-9.05231
ping	-9.05306
install	-9.05462
tick	-9.05521
▁gr	-9.05566
contact	-9.05605
allocate	-9.05649
removed	-9.0576
tc	-9.05774
certificate	-9.05777
▁dbus	-9.0583
scheme	-9.06165
less	-9.06171
fi	-9.0619
nf	-9.06355
rename	-9.06428
speed	-9.06457
▁rmi	-9.06481
▁validate	-9.06525
tk	-9.0661
side	-9.06723
slider	-9.06911
▁common	-9.07055
▁ad	-9.07061
try	-9.07149
combo	-9.07154
toggled	-9.07214
scene	-9.07315
board	-9.07372
▁target	-9.07513
hide	-9.07533
true	-9.07615
viewer	-9.07679
are	-9.07744
▁wrapgtk	-9.07818
touch	-9.07819
vg	-9.07938
Node	-9.07954
iso	-9.08046
rr	-9.08113
kind	-9.08227
▁key	-9.08329
ls	-9.08362
literal	-9.08435
suspend	-9.08626
▁visit	-9.08632
▁post	-9.08739
▁cb	-9.08779
jar	-9.08885
pg	-9.08887
bucket	-9.08939
alignment	-9.09161
place	-9.09228
nc	-9.09228
▁initialize	-9.09249
▁cl	-9.09417
login	-9.09601
codebegin	-9.09636
org	-9.09655
admin	-9.09673
execution	-9.09674
▁debug	-9.09755
▁decode	-9.09877
hu	-9.09945
au	-9.0998
▁sf	-9.10095
home	-9.10106
Write	-9.10267
▁object	-9.10386
▁next	-9.1044
kill	-9.10449
math	-9.10473
composite	-9.1064
inc	-9.10648
converter	-9.10665
mail	-9.10682
present	-9.10705
invalid	-9.10747
relative	-9.10848
lc	-9.10877
ag	-9.10963
dn	-9.10966
unlock	-9.11039
ice	-9.1104
ty	-9.11069
ignore	-9.11095
EDIT	-9.11168
▁globalsubiz	-9.11211
unique	-9.11234
arm	-9.11282
dlg	-9.11291
sk	-9.11357
star	-9.11509
att	-9.11512
▁server	-9.11535
virtual	-9.11641
tracker	-9.11802
zv	-9.11865
allowed	-9.12239
prompt	-9.12246
▁source	-9.12251
padding	-9.12263
ascii	-9.12279
ack	-9.12305
norm	-9.12313
▁abstract	-9.12359
NODE	-9.12484
acl	-9.12486
son	-9.12592
dest	-9.12603
▁main	-9.12708
duplicate	-9.12732
classname	-9.12791
compile	-9.12897
modified	-9.12932
desktop	-9.12964
▁javaorgeclipse	-9.1303
zdfshow	-9.13158
ov	-9.13226
margin	-9.13261
quad	-9.13279
fm	-9.13343
visibility	-9.13396
clause	-9.13397
▁query	-9.13408
ak	-9.13488
more	-9.13554
▁push	-9.13587
drv	-9.1359
multiply	-9.13597
endpoint	-9.13779
patch	-9.13882
metrics	-9.13888
closure	-9.13996
analysis	-9.14024
mon	-9.1408
▁ft	-9.14182
attach	-9.14222
▁notify	-9.1427
bt	-9.14277
pixmap	-9.14294
▁bt	-9.14441
hdr	-9.14476
resolver	-9.14502
combobox	-9.14502
drive	-9.14504
include	-9.14551
LONGINTLONGINT	-9.14553
units	-9.14721
zuzdcshow	-9.14745
ph	-9.14851
FORM	-9.14944
found	-9.14985
dep	-9.14987
cep	-9.14993
prim	-9.15166
ln	-9.15179
comm	-9.15211
ident	-9.15254
▁web	-9.15336
reload	-9.15391
primary	-9.15398
unknown	-9.15449
EDITOR	-9.1549
canvas	-9.15515
hd	-9.15632
▁bat	-9.15714
daemon	-9.15786
sock	-9.15867
▁ml	-9.15958
foreach	-9.1601
pdf	-9.16012
kb	-9.16182
▁message	-9.16187
was	-9.16226
groups	-9.16359
dma	-9.16374
txt	-9.16399
dimension	-9.16423
▁basic	-9.16558
rs	-9.16774
▁view	-9.16844
numeric	-9.1689
vc	-9.16957
declaration	-9.16974
vo	-9.16993
▁fs	-9.17049
ram	-9.17123
picture	-9.17157
Array	-9.17158
abort	-9.17177
ssl	-9.17183
permission	-9.17192
▁property	-9.1721
alt	-9.17252
cv	-9.1734
metric	-9.17368
IS	-9.17429
dt	-9.17431
Print	-9.17435
CREATE	-9.17453
▁vector	-9.17481
locale	-9.17486
cross	-9.17557
environment	-9.17609
prev	-9.17645
▁internal	-9.17649
cur	-9.17661
arrow	-9.17695
ify	-9.17722
▁ssl	-9.178
▁end	-9.17828
coord	-9.17835
▁rt	-9.17882
lst	-9.17887
▁compare	-9.17984
matcher	-9.18003
▁sort	-9.18046
cached	-9.18143
cu	-9.18191
unix	-9.18224
lower	-9.18392
swig	-9.18436
addref	-9.18441
fe	-9.18516
▁input	-9.18553
playlist	-9.1882
sf	-9.1888
rpc	-9.18988
▁enable	-9.19051
compiler	-9.19133
cookie	-9.19146
fl	-9.1915
interrupt	-9.19216
indent	-9.19229
allow	-9.19232
cipher	-9.19253
pe	-9.19293
rgba	-9.19318
▁se	-9.19401
ID	-9.19429
pd	-9.1943
▁dd	-9.19437
archive	-9.19451
digest	-9.19568
closed	-9.19641
mx	-9.19686
void	-9.19688
rep	-9.19697
Event	-9.19781
modify	-9.19886
gi	-9.19894
wm	-9.19926
▁finallyi	-9.2002
datetime	-9.2024
ue	-9.20261
none	-9.20271
tmp	-9.20295
live	-9.20308
▁generic	-9.20341
validation	-9.20393
printer	-9.20469
ie	-9.20529
▁calculate	-9.2054
logical	-9.2058
dns	-9.20718
▁verify	-9.20742
ind	-9.20772
inst	-9.20916
af	-9.20957
▁try	-9.21014
▁invalid	-9.2113
OR	-9.21191
▁first	-9.21273
▁core	-9.21346
regex	-9.21347
pause	-9.21403
palette	-9.21499
adjust	-9.21592
treeview	-9.21696
configure	-9.21722
▁should	-9.21816
detail	-9.21919
month	-9.21987
dis	-9.22116
small	-9.22135
▁gxggtk	-9.22164
datafree	-9.22199
▁pp	-9.22216
feed	-9.22244
strip	-9.22264
warning	-9.22279
dependency	-9.22295
▁pa	-9.22355
getclassname	-9.22375
quote	-9.22426
▁vm	-9.22508
yy	-9.22542
hit	-9.22626
numberof	-9.22719
escape	-9.22748
tv	-9.22765
Free	-9.22872
mult	-9.23039
midi	-9.2305
console	-9.23069
portlet	-9.23092
inv	-9.23243
▁op	-9.23294
ide	-9.23305
▁globalsubi	-9.23329
nn	-9.23351
rootclclmathclcl	-9.23386
▁module	-9.23396
keyword	-9.23418
holder	-9.23495
clean	-9.23524
ist	-9.23643
running	-9.23689
contents	-9.23715
compress	-9.23758
▁gst	-9.23779
▁gc	-9.23821
receive	-9.23896
▁merge	-9.23971
restart	-9.24265
fw	-9.24281
vp	-9.24328
▁mark	-9.24333
previous	-9.24407
▁mono	-9.24534
mu	-9.2458
overlay	-9.24581
cal	-9.24759
share	-9.24778
og	-9.24818
runtime	-9.24844
tools	-9.2486
graphics	-9.24868
iz	-9.24883
pid	-9.24899
newinstance	-9.24936
printf	-9.25041
dispatch	-9.25163
ub	-9.2521
sstd	-9.25426
ea	-9.2543
ate	-9.25475
iface	-9.25599
rn	-9.25645
▁plugin	-9.25676
▁imap	-9.25739
instruction	-9.25848
rectangle	-9.25892
▁sl	-9.25901
▁com	-9.25933
rand	-9.25963
▁ev	-9.26095
inf	-9.26129
▁sec	-9.26134
collect	-9.26224
▁so	-9.26249
▁grid	-9.26292
standard	-9.26373
objects	-9.26418
signed	-9.26529
ber	-9.26575
abstract	-9.26576
stage	-9.26608
az	-9.26622
▁replace	-9.26684
high	-9.26753
zdw	-9.2686
▁store	-9.27086
processing	-9.27119
payload	-9.27171
translate	-9.27174
platform	-9.27207
ical	-9.27306
using	-9.27332
rev	-9.27375
ADD	-9.27414
▁cd	-9.27445
nb	-9.27593
contains	-9.27611
delegate	-9.2771
received	-9.27716
pw	-9.27762
tor	-9.27776
vars	-9.27798
motion	-9.27809
▁task	-9.27923
destination	-9.27941
fu	-9.28004
wire	-9.2805
▁sa	-9.28084
visual	-9.28141
From	-9.28177
take	-9.28275
recent	-9.28305
arraymod	-9.28392
lg	-9.28402
reduce	-9.28408
wb	-9.28468
leave	-9.28493
phy	-9.28552
radio	-9.28664
oid	-9.28683
secret	-9.2884
perm	-9.28864
cn	-9.29003
▁fetch	-9.29157
▁rtl	-9.29169
lin	-9.29175
observer	-9.29177
ry	-9.2918
TYPE	-9.29197
pa	-9.29236
▁close	-9.29239
▁cairo	-9.2925
▁rb	-9.29274
gp	-9.29295
sv	-9.29306
safedown	-9.29317
svg	-9.29563
detach	-9.29612
mpi	-9.29663
▁min	-9.29691
best	-9.29708
bm	-9.29721
ies	-9.29749
ud	-9.2983
▁lua	-9.29924
rot	-9.2995
world	-9.30003
ver	-9.30083
rules	-9.30084
but	-9.30146
wr	-9.30209
tooltip	-9.30221
descr	-9.30326
period	-9.30423
updated	-9.30427
fo	-9.30483
cairo	-9.30504
extend	-9.30557
ear	-9.30659
▁prepare	-9.30683
▁toggle	-9.30702
Check	-9.30711
extent	-9.30761
AL	-9.30763
▁trace	-9.3077
▁hash	-9.30791
▁X	-9.30791
Table	-9.30859
chart	-9.30865
▁all	-9.30877
nic	-9.30895
▁C	-9.30963
lv	-9.3101
▁command	-9.31087
extended	-9.31093
colour	-9.31171
big	-9.31185
piece	-9.3119
▁window	-9.3126
▁custom	-9.3133
vertical	-9.31356
tion	-9.31366
TEXT	-9.31412
sheet	-9.31561
realget	-9.31593
▁cs	-9.31734
dv	-9.31751
unregister	-9.31806
sparse	-9.31892
revision	-9.31992
define	-9.32154
▁import	-9.32182
sfor	-9.32306
blend	-9.3235
missing	-9.32455
▁im	-9.32501
artifact	-9.32538
css	-9.32623
▁sd	-9.32709
▁sk	-9.32728
tls	-9.32775
▁format	-9.32898
locked	-9.33042
Ex	-9.33127
flat	-9.33248
▁pyvtkaddfilevtk	-9.33318
coll	-9.3333
matching	-9.33365
tra	-9.33433
maximum	-9.33437
chooser	-9.3345
eg	-9.33467
▁I	-9.33548
choice	-9.33683
accessible	-9.337
buttonclicked	-9.33719
ine	-9.3374
labels	-9.33772
methods	-9.33832
atomic	-9.33839
TCUSTOM	-9.33859
leaf	-9.33891
ITEM	-9.33974
Map	-9.34037
sta	-9.34047
marshal	-9.34155
sg	-9.34157
bad	-9.34208
pat	-9.34228
qt	-9.34234
tap	-9.34341
rotate	-9.34476
Con	-9.34545
▁project	-9.34605
▁orggnomegtkgtk	-9.34629
alert	-9.34686
grab	-9.34785
about	-9.348
catch	-9.34863
equals	-9.349
▁plot	-9.34931
checkbox	-9.3499
art	-9.35028
Draw	-9.35169
builtin	-9.35175
▁helper	-9.35277
classnew	-9.3528
dx	-9.35289
gap	-9.35298
variables	-9.35322
radius	-9.35325
states	-9.35391
disp	-9.35514
▁media	-9.35547
tables	-9.35576
▁finallyI	-9.35594
props	-9.35614
conversion	-9.35633
OB	-9.3571
histogram	-9.35827
▁null	-9.35943
▁getgl	-9.35951
▁cm	-9.36011
vol	-9.36147
when	-9.36201
specific	-9.36207
late	-9.36333
sorted	-9.36476
gn	-9.36529
SI	-9.36563
compose	-9.36568
solve	-9.36604
launch	-9.36662
▁audio	-9.36668
eb	-9.36842
fft	-9.37204
cost	-9.37234
gm	-9.3724
▁ps	-9.37432
now	-9.37436
ve	-9.37457
mr	-9.37558
ise	-9.37567
soft	-9.3761
ization	-9.37694
cube	-9.37794
blocks	-9.37838
Impl	-9.37854
sptrset	-9.37965
De	-9.37979
▁cp	-9.38016
rank	-9.38026
hl	-9.38075
partial	-9.3811
▁nv	-9.38136
constants	-9.38268
datatype	-9.38284
schedule	-9.38293
upload	-9.38334
▁resolve	-9.38395
staticnew	-9.38556
clientserver	-9.38565
assignment	-9.38683
year	-9.38719
▁pr	-9.38765
arb	-9.388
union	-9.38829
series	-9.3888
▁match	-9.39083
▁pdf	-9.39089
separator	-9.39123
reason	-9.39129
Find	-9.39165
clipboard	-9.39202
lan	-9.39391
anchor	-9.39422
▁block	-9.39432
cy	-9.3952
Proxy	-9.39622
matches	-9.39686
jpeg	-9.3974
arguments	-9.3978
▁report	-9.39855
▁HTML	-9.39959
▁ast	-9.40022
pic	-9.40067
asm	-9.40087
vl	-9.40089
caret	-9.40093
dst	-9.40105
seg	-9.40137
dummy	-9.40145
EXT	-9.40207
▁meta	-9.4024
anim	-9.40256
▁job	-9.40283
drawable	-9.40388
headers	-9.40416
measure	-9.4045
tu	-9.4051
rw	-9.40522
hp	-9.40597
▁failgl	-9.40738
dh	-9.40747
cpp	-9.40764
pn	-9.40765
loaded	-9.40777
breakpoint	-9.40797
roll	-9.40833
Stream	-9.40854
irq	-9.40905
keyboard	-9.41005
▁P	-9.41029
throw	-9.41092
datasource	-9.41154
changes	-9.41219
subject	-9.41297
shard	-9.41301
ure	-9.41325
▁geo	-9.41336
cycle	-9.41343
relation	-9.41392
connected	-9.4143
STRING	-9.41533
getname	-9.41545
tail	-9.41572
▁expand	-9.41711
img	-9.41751
public	-9.41756
unsigned	-9.41819
cstchartraitsice	-9.41869
sensor	-9.4188
▁json	-9.41884
dirty	-9.41915
consumer	-9.41957
hr	-9.42001
pro	-9.42093
triangle	-9.42213
Value	-9.42269
▁org	-9.42397
DATA	-9.42403
activated	-9.42406
rototypefunction	-9.42463
Man	-9.42514
▁vp	-9.42623
repeat	-9.42737
ratio	-9.42766
▁ATSdeesrcats	-9.42803
▁stop	-9.42881
false	-9.42892
have	-9.42972
AN	-9.4304
audit	-9.43073
notebook	-9.43077
tty	-9.43106
mutex	-9.43154
ru	-9.43157
bond	-9.43174
indices	-9.43175
alarm	-9.43179
rb	-9.43235
▁ip	-9.43299
uniform	-9.43511
▁ensure	-9.43571
asset	-9.43615
saiceee	-9.43653
tcxxbasicstringi	-9.43878
▁collect	-9.43937
▁lookup	-9.43942
quick	-9.43963
chat	-9.44009
▁sig	-9.44056
Exception	-9.44061
png	-9.44076
aw	-9.44166
esats	-9.44313
fv	-9.44335
ray	-9.4448
Image	-9.44561
byid	-9.44604
team	-9.44661
View	-9.44678
IT	-9.4468
▁G	-9.44746
without	-9.44771
known	-9.44858
rotation	-9.44879
paths	-9.44881
▁ens	-9.44971
pan	-9.44987
edges	-9.45085
priv	-9.45114
peek	-9.45138
nu	-9.45162
dyn	-9.45177
jump	-9.45199
locate	-9.45218
second	-9.45279
▁api	-9.45281
traverse	-9.45306
mv	-9.45325
FIND	-9.45367
upper	-9.45441
▁assistantzi	-9.45505
misc	-9.45549
conflict	-9.45564
bridge	-9.45594
ill	-9.45601
quit	-9.45656
pipeline	-9.45701
▁fix	-9.45704
interceptor	-9.45745
connector	-9.4575
Time	-9.45838
gdk	-9.45929
neg	-9.45982
original	-9.4604
credentials	-9.46132
Size	-9.46302
▁step	-9.46304
viewport	-9.46309
SYN	-9.46328
walk	-9.46338
indexed	-9.46342
▁global	-9.46354
functions	-9.46366
qp	-9.4637
typecast	-9.46438
correct	-9.46545
ret	-9.46577
example	-9.46578
executor	-9.46624
▁session	-9.46643
internalgtkosgtk	-9.46743
▁export	-9.4679
bp	-9.46793
startup	-9.46861
Buffer	-9.46903
retry	-9.47008
Tree	-9.47069
orientation	-9.47148
trim	-9.47166
subscription	-9.47323
TSYN	-9.47333
uni	-9.47343
erase	-9.47517
svc	-9.47583
circle	-9.47628
sha	-9.47669
Update	-9.47673
▁video	-9.47687
meter	-9.47811
flash	-9.47837
chan	-9.4789
BASE	-9.4789
detect	-9.47942
▁skip	-9.47992
lb	-9.48001
sexp	-9.48051
disc	-9.48108
solver	-9.48112
textview	-9.48123
arr	-9.48127
ial	-9.48189
mov	-9.48198
front	-9.48521
State	-9.48522
malloc	-9.48562
raster	-9.48588
started	-9.48642
operations	-9.48702
▁stream	-9.48707
▁tmp	-9.48738
peak	-9.48738
▁mem	-9.48741
packed	-9.48815
DIALOG	-9.48828
particle	-9.48925
ers	-9.48978
imp	-9.49037
validator	-9.49186
painter	-9.49197
IDE	-9.49242
candidate	-9.49271
horizontal	-9.49351
contour	-9.49357
▁co	-9.49486
▁mm	-9.49498
resolution	-9.49526
should	-9.49551
pol	-9.49572
AT	-9.49631
Gen	-9.49654
▁xf	-9.49677
changedcb	-9.49742
▁execute	-9.49789
charset	-9.49797
ian	-9.49847
invoke	-9.49848
▁epoxygl	-9.49962
kl	-9.49977
acc	-9.50009
hashtable	-9.5008
▁request	-9.50139
encrypt	-9.50279
receiver	-9.50323
Line	-9.50391
TLA	-9.50395
sn	-9.50433
stringto	-9.50444
Color	-9.50448
colors	-9.50452
▁scan	-9.50456
omp	-9.50484
divide	-9.50521
Cmd	-9.50542
locator	-9.50787
XML	-9.50796
▁cannot	-9.50841
dealloc	-9.50847
▁tr	-9.50878
td	-9.50897
amp	-9.50941
car	-9.51007
predicate	-9.51033
der	-9.51049
calculate	-9.51135
ness	-9.51137
under	-9.51145
attachment	-9.51273
pref	-9.51279
deployment	-9.51286
repo	-9.5129
cover	-9.51434
disabled	-9.51453
Item	-9.5152
Proc	-9.51534
▁ch	-9.51539
authentication	-9.51567
modifier	-9.51569
fr	-9.51585
chars	-9.51803
mixer	-9.5182
Release	-9.5187
arch	-9.51872
sat	-9.519
ux	-9.51943
workspace	-9.51946
wiv	-9.52
▁record	-9.52005
▁account	-9.5201
requested	-9.52015
ES	-9.52067
END	-9.5209
scsi	-9.5228
▁destroy	-9.52417
topic	-9.52493
foreign	-9.52498
seed	-9.52618
▁usb	-9.52637
▁sg	-9.527
AS	-9.52723
music	-9.52801
▁code	-9.52809
voice	-9.52836
nth	-9.52894
deleted	-9.52968
lmz	-9.53015
serializer	-9.53019
▁M	-9.53061
Stub	-9.53068
dao	-9.53073
wave	-9.531
sphere	-9.53145
stroke	-9.53162
strings	-9.53229
large	-9.5325
▁vectozu	-9.53287
servlet	-9.53301
sptrpcworktime	-9.53306
ja	-9.5332
▁pyvtkclass	-9.53337
syntax	-9.53382
cg	-9.53393
decrypt	-9.53433
mime	-9.53472
scrollbar	-9.53536
suffix	-9.5354
▁split	-9.53714
slave	-9.53742
recursive	-9.53792
zlq	-9.53812
assert	-9.53904
python	-9.5391
lazy	-9.53986
exc	-9.5405
umsqu	-9.54093
cam	-9.54096
sol	-9.54101
fromfile	-9.54103
▁gb	-9.5415
threads	-9.5418
▁color	-9.54205
▁cryptzu	-9.54256
author	-9.54325
uklndatazivector	-9.54333
flip	-9.54343
▁dummy	-9.54402
ow	-9.5457
lm	-9.54618
Is	-9.54643
▁tag	-9.54703
isnot	-9.54712
completed	-9.54829
scanner	-9.5491
phone	-9.54913
▁tree	-9.54995
▁cf	-9.55027
▁pyvtkaddfile	-9.55084
frequency	-9.55239
submit	-9.55257
▁document	-9.55273
like	-9.55283
operand	-9.55313
imm	-9.55367
hidden	-9.55394
For	-9.55449
mean	-9.5545
photo	-9.55476
▁cache	-9.55491
minimum	-9.55492
▁begin	-9.55542
raise	-9.55567
into	-9.55622
lf	-9.55713
vt	-9.55801
persist	-9.55804
gamma	-9.55841
tclcreate	-9.5586
sim	-9.55879
DESTROY	-9.56
tb	-9.56001
catalog	-9.56155
cellrenderer	-9.56168
Load	-9.56259
insn	-9.56296
▁restore	-9.56326
serv	-9.56387
rom	-9.56404
▁ScmGtk	-9.56511
▁pop	-9.56513
polydata	-9.56515
UNIT	-9.56646
redirect	-9.56737
mock	-9.56775
EX	-9.56798
finder	-9.56824
problem	-9.5686
nm	-9.56877
hy	-9.56928
getcurrent	-9.56931
xor	-9.57031
▁ext	-9.57053
gram	-9.57099
rv	-9.57194
spi	-9.57204
blank	-9.57247
keep	-9.57403
▁nfs	-9.5745
▁resource	-9.57456
mapped	-9.57492
registration	-9.5754
legacy	-9.57799
success	-9.57839
je	-9.5804
sper	-9.58066
▁ds	-9.58104
dy	-9.58131
ating	-9.58185
lab	-9.58248
iterate	-9.58261
inputstream	-9.58275
sq	-9.58282
lr	-9.58295
pb	-9.58377
mutable	-9.58397
concat	-9.58432
▁refresh	-9.58438
mailbox	-9.58475
▁nemo	-9.58479
btree	-9.58494
prefs	-9.58503
half	-9.58504
▁service	-9.58534
spin	-9.58566
cnt	-9.58574
Element	-9.5858
Mo	-9.586
checker	-9.58609
Callback	-9.58645
pix	-9.58811
Frame	-9.59001
AR	-9.59129
lat	-9.59139
Open	-9.5918
▁adjust	-9.59263
symbols	-9.59271
cons	-9.59452
accel	-9.59532
translation	-9.59534
▁mk	-9.59548
ql	-9.59559
spell	-9.5956
▁rygel	-9.59589
coninfo	-9.59614
tasks	-9.59627
ze	-9.59685
we	-9.59705
fini	-9.59707
SP	-9.59748
thumbnail	-9.59789
eh	-9.59794
pick	-9.59806
CUSTOM	-9.59877
▁translate	-9.5989
MP	-9.59982
lj	-9.6
datazi	-9.6001
testcase	-9.60068
fire	-9.60074
Config	-9.60104
room	-9.60105
▁SYNEDIT	-9.60176
psi	-9.60203
xt	-9.60219
ah	-9.6024
UN	-9.60265
▁rpc	-9.60282
▁bi	-9.60336
fromstring	-9.60337
▁fr	-9.60348
▁raw	-9.60364
city	-9.60477
ug	-9.60536
▁not	-9.60614
▁getcurrent	-9.60738
resp	-9.60764
legend	-9.60798
spline	-9.60855
playback	-9.60869
cont	-9.60922
ran	-9.60952
saved	-9.60967
getvalue	-9.60988
physical	-9.61072
own	-9.61073
defined	-9.61185
INT	-9.6121
normalize	-9.61217
▁non	-9.61239
sources	-9.61247
ust	-9.6127
perform	-9.61291
preferred	-9.61389
▁gm	-9.61427
▁dc	-9.61433
scaled	-9.61451
pixels	-9.61454
OPTIONS	-9.6153
▁av	-9.61539
smooth	-9.61583
balance	-9.61612
GTK	-9.61709
quality	-9.61759
▁svg	-9.61791
wc	-9.61903
Delete	-9.61982
wi	-9.62016
git	-9.62045
swigconstant	-9.62065
nr	-9.62159
▁gfc	-9.62168
nav	-9.62219
optional	-9.6223
▁cr	-9.62324
▁external	-9.62382
paste	-9.62388
▁auth	-9.62427
filesystem	-9.62444
additional	-9.62449
▁host	-9.62584
pkg	-9.62716
average	-9.62742
ON	-9.62841
▁instantiatorvtk	-9.6285
typed	-9.62927
IP	-9.62998
individual	-9.63014
goto	-9.63071
▁application	-9.63109
already	-9.63124
graphic	-9.63153
components	-9.63179
▁util	-9.63183
▁orgeclipse	-9.63211
decimal	-9.63212
▁camlG	-9.63225
▁total	-9.63291
warn	-9.63297
ipv	-9.63311
adaptor	-9.63322
cq	-9.63326
▁opam	-9.63343
subst	-9.63347
inspection	-9.63409
INFO	-9.63435
▁mpi	-9.63462
mute	-9.63509
boundary	-9.63589
broadcast	-9.63672
ass	-9.63675
IC	-9.63786
ws	-9.63832
ence	-9.63844
channels	-9.63872
loading	-9.63908
family	-9.64015
linked	-9.64043
bf	-9.64098
song	-9.64142
▁cluster	-9.64192
lic	-9.64199
via	-9.64232
▁deesrc	-9.64245
ticket	-9.64285
price	-9.64305
Path	-9.64328
fits	-9.6436
gain	-9.64364
wp	-9.64369
▁ws	-9.64509
vpn	-9.64589
bs	-9.64612
▁Get	-9.64655
▁compile	-9.64777
intersect	-9.64849
editable	-9.64942
sprite	-9.65012
▁release	-9.65209
▁F	-9.6526
will	-9.65339
▁K	-9.65428
mainwindow	-9.65463
allocation	-9.65515
boot	-9.65516
pcm	-9.6565
initializer	-9.65706
distribution	-9.65728
invert	-9.65739
tbl	-9.65763
her	-9.65791
inside	-9.65791
assoc	-9.65815
vtkinit	-9.65832
Int	-9.65922
ordered	-9.65932
prototype	-9.65933
logic	-9.65973
▁matrix	-9.66032
dependencies	-9.66121
errors	-9.6613
▁transform	-9.66153
ord	-9.66166
hold	-9.6619
ao	-9.66204
dvb	-9.66206
interfaceinit	-9.66232
air	-9.66233
xf	-9.66332
threadpriority	-9.66359
sampler	-9.66437
exact	-9.6652
username	-9.66533
answer	-9.66574
ka	-9.66594
mq	-9.666
lambda	-9.66622
invocation	-9.66857
ile	-9.66872
Context	-9.66879
▁qwt	-9.66941
Error	-9.67028
IO	-9.6705
crypto	-9.67069
axes	-9.67089
CODE	-9.67093
▁maybe	-9.67111
gh	-9.67161
knowledge	-9.67193
continue	-9.67196
vr	-9.67359
sem	-9.6736
ocaml	-9.67536
▁alloc	-9.67566
▁dis	-9.67578
conversation	-9.67654
▁network	-9.67667
▁subizn	-9.67712
▁mi	-9.67788
zm	-9.67817
absolute	-9.67826
▁switch	-9.67828
increment	-9.67835
journal	-9.67879
gg	-9.67965
▁Py	-9.67968
wo	-9.67976
serialize	-9.68002
coords	-9.68003
▁sample	-9.68049
MANAGER	-9.68108
weak	-9.68155
pu	-9.68168
inode	-9.68188
▁game	-9.68232
New	-9.68261
rocessoraffinity	-9.68365
constraints	-9.68458
outline	-9.68513
izer	-9.68553
plain	-9.68561
iteration	-9.68573
▁expr	-9.68617
▁gsetupmemvar	-9.68642
regexp	-9.68697
▁ht	-9.68706
SOURCE	-9.68716
preset	-9.68756
redraw	-9.68856
pull	-9.6895
look	-9.68951
cli	-9.68975
scheduler	-9.68983
LINE	-9.68999
gpu	-9.69023
LA	-9.69025
truncate	-9.69104
inputbuffersfull	-9.69153
utputbuffersfull	-9.69167
pen	-9.69218
picker	-9.69246
registertypes	-9.69268
trust	-9.69284
▁gsetupmemfunc	-9.69287
commandline	-9.69384
outer	-9.6941
ger	-9.69485
▁ex	-9.69492
displayname	-9.69587
▁lm	-9.69617
▁sw	-9.69666
▁unableto	-9.6968
person	-9.69703
backup	-9.69727
facet	-9.69809
notfound	-9.6984
rem	-9.6986
glob	-9.69909
treemodel	-9.69931
analyzer	-9.69972
tic	-9.69977
▁sqlite	-9.7001
that	-9.70099
ioctl	-9.70117
attempt	-9.70148
Destroy	-9.70264
projection	-9.70295
Menu	-9.70324
compressed	-9.70387
▁signal	-9.70413
sender	-9.70452
exist	-9.7048
ite	-9.70493
Parse	-9.70497
Filter	-9.70499
READ	-9.70595
intent	-9.70616
Sub	-9.70648
HELP	-9.70696
du	-9.70709
▁R	-9.70743
generated	-9.70854
▁gt	-9.70877
way	-9.70914
▁proc	-9.70918
ftp	-9.70922
implicit	-9.70969
replay	-9.71001
concept	-9.71031
phys	-9.71108
udp	-9.71109
rendering	-9.7111
xa	-9.71118
toplevel	-9.71176
dash	-9.712
ulong	-9.71217
▁getdefault	-9.71378
navigation	-9.71386
tobe	-9.71405
Handle	-9.71552
TS	-9.71592
ING	-9.71635
CONTROL	-9.71643
realloc	-9.71682
parallel	-9.71758
some	-9.71808
management	-9.71815
ask	-9.71821
WORD	-9.7186
▁sim	-9.7187
▁wk	-9.7191
▁camlP	-9.71936
▁term	-9.7197
ship	-9.72129
clclmathclcl	-9.7217
expose	-9.72225
caps	-9.72233
▁win	-9.72248
▁async	-9.7225
unlink	-9.72301
▁random	-9.72345
wide	-9.72412
ik	-9.72417
▁zif	-9.72428
prec	-9.72431
▁sb	-9.72439
presentation	-9.72442
rest	-9.72444
secure	-9.72449
tw	-9.72471
blk	-9.72484
▁unix	-9.72517
exchange	-9.72529
bag	-9.72591
▁method	-9.72721
pred	-9.72774
▁cleanup	-9.72781
runner	-9.72797
▁go	-9.72833
ible	-9.72857
opcode	-9.72857
mag	-9.72867
wt	-9.72929
Pre	-9.72977
dependent	-9.73069
FP	-9.73083
nested	-9.73087
listen	-9.7318
rig	-9.73221
▁ide	-9.73236
▁gdk	-9.73288
▁dynamic	-9.73288
CLASS	-9.73308
seconds	-9.73319
bu	-9.73502
sleep	-9.73511
▁nss	-9.73529
ssh	-9.73551
Count	-9.73551
▁zl	-9.73577
gsl	-9.73695
slow	-9.73695
▁active	-9.73812
▁sync	-9.73824
ensure	-9.7388
pitch	-9.739
diag	-9.73906
Str	-9.73977
swtinternalgtkos	-9.74039
Enum	-9.74048
fg	-9.74061
fade	-9.74107
bookmark	-9.742
persistent	-9.74324
▁doc	-9.74354
within	-9.74365
▁camlNet	-9.74452
▁cducelib	-9.74466
bytearray	-9.74513
gaussian	-9.74528
ole	-9.74586
eve	-9.7463
pseudo	-9.74646
qr	-9.74735
our	-9.74802
checksum	-9.74991
POINTER	-9.75017
TREE	-9.75023
mix	-9.7503
implementation	-9.75041
▁assign	-9.75077
inplace	-9.75079
Co	-9.75082
creation	-9.75148
gd	-9.75186
CHECK	-9.75196
acquire	-9.75263
persistence	-9.75331
tz	-9.75376
triggered	-9.7543
listitem	-9.75458
encoded	-9.75469
proxyget	-9.75473
Font	-9.75554
ang	-9.75566
Trans	-9.7562
combine	-9.75626
dock	-9.75733
▁static	-9.75753
CHAR	-9.75753
cvt	-9.75787
▁bit	-9.75848
pixbuf	-9.75892
spawn	-9.75906
turn	-9.75913
aggregate	-9.75943
crypt	-9.75964
Log	-9.75981
stencil	-9.75991
ko	-9.76003
album	-9.76044
skeletonget	-9.761
▁fm	-9.76134
mimetype	-9.7619
grow	-9.76282
▁mlpost	-9.76334
btn	-9.76404
FIELD	-9.76441
zb	-9.7645
irc	-9.76471
▁tc	-9.76523
guard	-9.76574
inverse	-9.7659
DRAW	-9.7663
▁fast	-9.76638
▁orgeclipseswt	-9.76656
▁extra	-9.76659
exclude	-9.76662
▁connect	-9.76702
pmc	-9.7671
unref	-9.76717
maxvalue	-9.76741
comparator	-9.76817
publish	-9.76911
▁parent	-9.76929
unused	-9.7693
tg	-9.76961
shortcut	-9.76998
Server	-9.77008
optimize	-9.77048
Command	-9.77068
directive	-9.77076
ell	-9.77081
hyper	-9.77129
▁gf	-9.77136
nat	-9.77137
sent	-9.77338
kit	-9.77365
getnext	-9.77392
setdefault	-9.77431
ities	-9.77495
▁deletearrayt	-9.77595
ting	-9.77615
terminal	-9.77652
▁allow	-9.77667
▁destructt	-9.77701
led	-9.77758
Close	-9.77769
TOOL	-9.77798
micro	-9.77806
▁player	-9.77851
ann	-9.77879
▁math	-9.77884
discard	-9.7789
sch	-9.77978
▁exp	-9.78001
ldap	-9.78011
browse	-9.78032
typeinfo	-9.78043
IM	-9.78064
▁dl	-9.78066
possible	-9.7808
isnull	-9.78119
ki	-9.78125
gs	-9.78164
collector	-9.78177
▁deletet	-9.78181
dtor	-9.78333
LE	-9.78336
fq	-9.78355
▁eval	-9.78364
▁opt	-9.78365
square	-9.78438
terminate	-9.7844
quota	-9.78442
▁did	-9.78482
rad	-9.785
xv	-9.78564
destruct	-9.78582
▁brasero	-9.78589
▁pg	-9.78674
ative	-9.78691
zdford	-9.7874
aff	-9.78746
km	-9.78766
atsc	-9.78778
gtkwidget	-9.78782
wx	-9.78803
▁con	-9.78961
buffered	-9.78995
pkcs	-9.79129
gettext	-9.79261
▁pw	-9.79301
▁install	-9.79353
confirm	-9.79389
press	-9.79513
smart	-9.79539
▁xfs	-9.79589
▁camlC	-9.79689
cst	-9.79721
CB	-9.79722
buffers	-9.79733
hist	-9.79742
PACKAGE	-9.79744
▁failedto	-9.79745
noise	-9.79757
gb	-9.79772
▁recv	-9.79809
VALUE	-9.79809
mer	-9.7986
▁LA	-9.79885
future	-9.80003
KEY	-9.80068
design	-9.80089
gv	-9.80237
debugger	-9.80242
▁ct	-9.80329
spacing	-9.80337
▁if	-9.80358
estimate	-9.80459
rq	-9.80516
interp	-9.80537
▁track	-9.80564
shouldbe	-9.80586
streaming	-9.80615
mono	-9.80688
maybe	-9.80693
markup	-9.80705
gather	-9.80715
getdefault	-9.80751
dsp	-9.80805
bmc	-9.80805
unsafe	-9.80844
runnable	-9.8085
▁tcl	-9.80865
yzz	-9.80956
▁intel	-9.8097
thumb	-9.80988
attrib	-9.81023
interpolate	-9.81045
▁force	-9.81093
minvalue	-9.81115
fnanbninf	-9.81144
Index	-9.81177
hc	-9.81223
accessor	-9.81228
▁bind	-9.81235
percent	-9.81276
dead	-9.81287
corner	-9.81311
linux	-9.81338
▁schedule	-9.81348
windows	-9.81386
registered	-9.81395
▁cur	-9.814
coordinates	-9.81441
cx	-9.81442
rewrite	-9.81445
modules	-9.81447
crop	-9.8148
prob	-9.81503
▁remotesidlxrmi	-9.81519
activation	-9.81578
▁domhtml	-9.81591
ash	-9.81667
▁california	-9.81669
trie	-9.81685
Char	-9.81693
▁paint	-9.81693
tip	-9.81718
words	-9.81727
▁hp	-9.81751
▁ll	-9.81773
pages	-9.81803
filters	-9.81843
sprec	-9.8186
whitespace	-9.81937
adjustment	-9.81946
ave	-9.82028
sptrpcnproduced	-9.82082
▁D	-9.82141
▁cpu	-9.82163
▁W	-9.82171
based	-9.82175
▁pack	-9.82177
▁drop	-9.82183
grspgr	-9.82185
LONGWORD	-9.82203
getter	-9.8221
▁sr	-9.82267
checked	-9.8228
existing	-9.82355
▁ieee	-9.82382
keyed	-9.82416
backward	-9.82418
▁single	-9.82456
▁sj	-9.82463
▁su	-9.82473
px	-9.8248
▁gd	-9.82528
atk	-9.82543
queryinterface	-9.82578
hierarchy	-9.82627
timezone	-9.82747
utilities	-9.82752
bk	-9.82801
got	-9.82802
typ	-9.82832
DLG	-9.8289
coverage	-9.82891
▁yesodzu	-9.82893
syn	-9.82897
sep	-9.82948
blit	-9.8295
Block	-9.83
overflow	-9.83019
▁ss	-9.83064
cor	-9.83067
parm	-9.83071
compression	-9.83079
analyze	-9.83091
xp	-9.83096
DE	-9.83136
▁this	-9.83146
references	-9.83154
▁comgooglecode	-9.8316
ppcommand	-9.83196
COLOR	-9.8323
qual	-9.83271
energy	-9.83294
subtract	-9.83342
xnn	-9.83393
virt	-9.83429
links	-9.83462
▁content	-9.83472
secondary	-9.83704
ink	-9.83734
services	-9.83748
tracking	-9.8378
cells	-9.83791
▁geary	-9.83796
ick	-9.83863
sby	-9.83893
▁return	-9.83973
asn	-9.83975
PROC	-9.83985
▁di	-9.8405
solid	-9.84064
neighbor	-9.841
wizard	-9.84168
zk	-9.84206
ini	-9.84246
▁original	-9.84249
bw	-9.84289
cxx	-9.84333
synth	-9.84356
plugins	-9.84427
▁sdl	-9.84435
▁exec	-9.84456
many	-9.84506
instr	-9.84508
▁gsetupmemfunct	-9.84565
filepath	-9.84622
▁rs	-9.8467
LINK	-9.84777
getn	-9.84842
instances	-9.84845
magic	-9.84909
▁ppc	-9.84923
need	-9.84924
▁def	-9.85033
extensions	-9.85053
annotations	-9.85104
gemm	-9.85138
▁lc	-9.85153
AddRef	-9.85196
explicit	-9.85253
Display	-9.85343
mip	-9.85357
parsing	-9.8547
digit	-9.85483
vsi	-9.85493
timing	-9.85555
GEARPTR	-9.85571
▁ec	-9.85675
logging	-9.85677
Client	-9.85721
realize	-9.85792
ke	-9.85814
ju	-9.85884
▁findby	-9.85902
zdfmonad	-9.85919
attributegetter	-9.85997
grp	-9.85999
recover	-9.86016
HANDLER	-9.86091
pow	-9.86153
floor	-9.86162
oa	-9.86201
unparse	-9.86385
formatter	-9.86385
hand	-9.86412
paw	-9.86437
PRO	-9.86446
▁nbap	-9.86459
between	-9.86489
▁other	-9.86499
▁entity	-9.86506
Copy	-9.86596
vert	-9.86615
aes	-9.86634
▁fire	-9.86704
permissions	-9.86735
allocator	-9.86766
while	-9.86773
recovery	-9.868
WRITE	-9.8681
▁gsm	-9.86865
ACTION	-9.86906
▁rm	-9.86917
Input	-9.86923
evt	-9.86976
station	-9.87033
perf	-9.87045
advance	-9.87085
strict	-9.87232
klfu	-9.87254
▁fx	-9.87281
week	-9.87299
deinit	-9.87366
▁dock	-9.87392
columnname	-9.87416
fullscreen	-9.87465
pulse	-9.8748
▁br	-9.8752
users	-9.87528
ard	-9.8753
▁script	-9.87546
echo	-9.87589
▁destruct	-9.87652
▁include	-9.87692
rng	-9.87708
▁runtime	-9.87728
incoming	-9.87744
simplify	-9.87746
Select	-9.87784
▁gwy	-9.87806
oovnzziecryptozi	-9.87811
refs	-9.87811
egek	-9.87822
▁actual	-9.87824
elt	-9.87837
▁describe	-9.87862
agg	-9.87863
hm	-9.87875
▁gprconfig	-9.87882
interpreter	-9.87888
treenode	-9.87922
▁encode	-9.87935
pkt	-9.87937
grad	-9.8794
framebuffer	-9.87955
dto	-9.87962
xl	-9.87979
capacity	-9.88021
brush	-9.88092
pub	-9.88243
issue	-9.88256
fifo	-9.88297
Device	-9.88302
xyz	-9.88303
▁ssh	-9.88308
cloud	-9.88382
dtd	-9.88406
isvalid	-9.88494
rg	-9.88578
wchar	-9.88589
rsa	-9.88616
unload	-9.88629
dw	-9.88632
▁protoregister	-9.88633
chr	-9.88665
IF	-9.88674
iq	-9.88727
vu	-9.88737
libkmlkmldomjni	-9.88795
▁N	-9.88839
routing	-9.88858
instantiate	-9.88867
▁src	-9.88889
▁tcp	-9.88915
bd	-9.89007
tagged	-9.89024
▁xc	-9.89024
initialized	-9.89025
prep	-9.8905
invalidate	-9.89079
fallback	-9.89156
you	-9.89241
Process	-9.89312
readonly	-9.89327
ziinternal	-9.89348
▁ra	-9.894
abc	-9.89414
▁addto	-9.89418
▁deletearray	-9.89458
▁scm	-9.89489
caption	-9.89545
▁dm	-9.89564
▁boot	-9.89625
feedback	-9.89653
clcl	-9.89744
creator	-9.89799
ueryInterface	-9.89887
aspect	-9.89907
uv	-9.89928
▁font	-9.89944
each	-9.89946
isempty	-9.89978
▁rc	-9.90015
pretty	-9.90047
Handler	-9.90176
uery	-9.90257
hard	-9.90268
hostname	-9.90268
Entry	-9.90298
zdfeq	-9.90392
▁row	-9.90409
gene	-9.90429
xxx	-9.90436
▁sn	-9.90453
hints	-9.90505
proxydo	-9.90531
UPDATE	-9.90607
qq	-9.90647
▁css	-9.90661
wheel	-9.90662
until	-9.9068
sizeof	-9.90712
▁std	-9.90758
stdregexinternal	-9.90759
ae	-9.90776
▁disable	-9.90855
opts	-9.90859
dbg	-9.90862
most	-9.90943
negative	-9.91042
▁column	-9.91058
▁compilation	-9.91212
sky	-9.91292
▁mail	-9.91295
▁md	-9.91301
movie	-9.91314
zuzds	-9.91403
interpolator	-9.91591
DEF	-9.91659
▁ignore	-9.91683
tokens	-9.91729
war	-9.91745
fact	-9.91788
▁storage	-9.918
crl	-9.91813
ace	-9.9185
avx	-9.91882
ku	-9.91899
rdf	-9.91907
▁calendar	-9.91978
specified	-9.91988
▁label	-9.92001
▁git	-9.9201
capability	-9.92049
vlan	-9.92103
chip	-9.92293
On	-9.92341
outputstream	-9.92381
comments	-9.9239
▁link	-9.92422
buttons	-9.9246
Button	-9.92468
bio	-9.92477
upgrade	-9.92499
bv	-9.92508
dispatcher	-9.92597
alg	-9.92618
▁diff	-9.92622
rational	-9.92684
portal	-9.92691
footer	-9.92704
EVENT	-9.92762
tun	-9.92827
listof	-9.92851
indirect	-9.92913
guess	-9.92927
shade	-9.92932
needed	-9.9294
must	-9.9296
▁empty	-9.92962
mmx	-9.92962
ler	-9.92962
sched	-9.92982
written	-9.93056
overlap	-9.93068
algo	-9.93097
waitfor	-9.93107
entities	-9.93129
▁control	-9.93138
hdf	-9.93213
▁hi	-9.93235
STR	-9.93241
cos	-9.93267
vectors	-9.93281
hello	-9.93344
compact	-9.93348
addresses	-9.93373
amount	-9.9341
▁del	-9.9347
unmap	-9.93495
▁configure	-9.93661
para	-9.9368
degree	-9.93753
wall	-9.9378
pressed	-9.93933
ejb	-9.93943
alter	-9.94038
basis	-9.94039
gate	-9.94043
scr	-9.94051
hop	-9.94059
instrument	-9.94094
▁tool	-9.94095
ized	-9.94121
▁ncmpi	-9.94125
▁engine	-9.94146
Hash	-9.94195
black	-9.94242
roots	-9.94258
managed	-9.94268
router	-9.94281
hf	-9.94286
▁public	-9.94334
ucs	-9.94387
delayed	-9.94472
immediate	-9.94543
readdata	-9.94655
intr	-9.94702
unset	-9.94703
charge	-9.94779
Mode	-9.94923
eee	-9.94966
▁cmp	-9.94983
elf	-9.94989
▁builtin	-9.95006
▁crypt	-9.95015
▁php	-9.95075
attrs	-9.9509
fork	-9.9513
▁need	-9.95142
mirror	-9.95144
filtered	-9.9518
gnome	-9.95194
pcsgobject	-9.95203
▁perform	-9.95224
INTF	-9.95225
▁getnext	-9.95243
curl	-9.95393
endof	-9.95474
gpio	-9.95481
ata	-9.95489
wiki	-9.95556
▁tile	-9.95565
plug	-9.95607
▁zim	-9.95625
▁comp	-9.95634
qu	-9.95649
▁boxes	-9.95668
consume	-9.95698
once	-9.95711
▁flush	-9.9577
▁ada	-9.95771
▁commandzi	-9.95816
lx	-9.95819
▁shell	-9.95825
tone	-9.95882
classpath	-9.95894
interactive	-9.9594
▁complex	-9.96024
ether	-9.96026
devices	-9.9605
assembly	-9.96051
writable	-9.96054
mg	-9.96071
▁rd	-9.96085
proof	-9.961
mz	-9.96116
BUILD	-9.96124
embed	-9.96155
wk	-9.9617
purge	-9.96176
▁dvbt	-9.96192
staticinfo	-9.96318
chk	-9.96369
sasl	-9.96393
▁png	-9.96394
commands	-9.9645
Start	-9.96515
▁getall	-9.96522
bank	-9.96529
subscribe	-9.96564
Ref	-9.96578
attack	-9.96613
ushort	-9.96645
getnum	-9.96671
records	-9.96691
compound	-9.96756
lk	-9.96758
▁ir	-9.9677
minmax	-9.96798
▁seq	-9.96854
stringof	-9.96888
▁hb	-9.96928
boost	-9.9699
mn	-9.97038
▁gnome	-9.9707
vect	-9.9712
utftbycodeunitta	-9.97125
detector	-9.97128
COMPONENT	-9.97176
minus	-9.97192
▁initial	-9.97204
NV	-9.97236
tests	-9.97274
ped	-9.97285
follow	-9.97417
webkit	-9.97457
ncmc	-9.97465
ling	-9.97493
jo	-9.97495
▁play	-9.97497
bug	-9.97533
tostr	-9.97554
All	-9.97573
difference	-9.97583
millis	-9.97592
lam	-9.97627
▁protoreghandoff	-9.97661
enumerate	-9.97663
Change	-9.97694
choose	-9.97718
nano	-9.97735
getsize	-9.97818
extents	-9.97836
MA	-9.97843
moving	-9.97861
formula	-9.97866
▁mysql	-9.97879
Message	-9.97893
asstring	-9.97945
▁gsetupmemvart	-9.97947
evaluation	-9.9797
▁getmax	-9.97981
rib	-9.98044
intern	-9.98078
stored	-9.98082
assertion	-9.98088
visit	-9.98104
fixup	-9.98166
getnumberof	-9.98227
fk	-9.98232
mol	-9.98237
▁cell	-9.98256
vertices	-9.98281
aligned	-9.98283
nearest	-9.98297
▁cancel	-9.98361
hot	-9.98397
gfx	-9.98423
deprecated	-9.98438
▁child	-9.98465
▁allocate	-9.98473
typename	-9.98475
embedded	-9.98516
quant	-9.98626
aya	-9.98652
vertexattrib	-9.98698
compat	-9.98799
gu	-9.9883
▁evas	-9.98831
▁sq	-9.98897
▁dispatch	-9.98945
exporter	-9.9895
topology	-9.98952
stringlist	-9.99023
land	-9.99039
▁commit	-9.99041
frontend	-9.99073
▁wm	-9.99138
naming	-9.99154
sidebar	-9.99161
xm	-9.99313
listview	-9.99314
▁ef	-9.99364
vis	-9.99372
singleton	-9.99377
wifi	-9.994
▁camlOmake	-9.99417
capabilities	-9.99453
dat	-9.99468
actual	-9.99474
ifi	-9.99511
applet	-9.99514
▁df	-9.99528
▁isset	-9.99561
orig	-9.99575
End	-9.99591
statusbar	-9.99591
udf	-9.99595
realm	-9.99718
▁date	-9.99737
symm	-9.99778
contacts	-9.99797
▁pt	-9.99881
sqlite	-9.99928
mux	-9.99964
mpz	-9.99985
▁hide	-9.99995
▁layout	-10.0001
▁root	-10.0003
▁fl	-10.0009
▁img	-10.0017
▁ri	-10.0019
Id	-10.002
▁gth	-10.0027
ranges	-10.003
zds	-10.0035
ability	-10.0037
▁gitg	-10.0046
gf	-10.0047
eventhandler	-10.0048
▁tp	-10.0053
▁ic	-10.0055
replica	-10.0058
limits	-10.0063
SS	-10.0064
bulk	-10.0066
reserve	-10.007
categories	-10.0072
uk	-10.0077
▁clean	-10.0077
▁prj	-10.0077
▁protocol	-10.008
userid	-10.0087
PL	-10.0087
getmax	-10.0094
smtp	-10.0095
▁rnsap	-10.0104
snap	-10.0106
rinfo	-10.011
▁channel	-10.0111
Box	-10.0114
▁hs	-10.0119
▁dns	-10.0121
perl	-10.0121
mysql	-10.0137
declare	-10.0142
que	-10.0144
skeletonhandle	-10.0155
▁trans	-10.0156
abi	-10.0158
exodus	-10.016
▁waitfor	-10.016
manage	-10.0161
▁connection	-10.0165
mustbe	-10.0166
▁cli	-10.0169
▁ho	-10.0175
typing	-10.0178
evaluate	-10.0178
intersection	-10.0183
nci	-10.0184
▁H	-10.0184
moveto	-10.0186
jp	-10.0186
proj	-10.0189
ji	-10.0194
▁canvas	-10.0196
samples	-10.0198
EN	-10.02
frag	-10.0201
chem	-10.0204
▁utilityzi	-10.0209
cpy	-10.0216
ltx	-10.0223
▁unknown	-10.0229
transpose	-10.023
ele	-10.0235
resolved	-10.0236
trap	-10.0239
sdp	-10.024
vs	-10.0246
▁contains	-10.0253
Inter	-10.0253
groupid	-10.0255
▁gvfs	-10.0257
authorization	-10.0258
▁egg	-10.026
gray	-10.0262
payment	-10.0266
zdlr	-10.0269
lvl	-10.0275
CH	-10.0277
jb	-10.0277
bigint	-10.0278
ular	-10.0282
article	-10.0289
frames	-10.0291
WIDGETSET	-10.0291
Test	-10.0297
Next	-10.0303
CE	-10.0303
claim	-10.0305
▁cfg	-10.0308
tinfo	-10.0309
emu	-10.0316
▁getnum	-10.032
constr	-10.0321
tok	-10.0322
inventory	-10.0322
terms	-10.0326
▁tab	-10.0336
deploy	-10.0337
▁Set	-10.0339
▁udisks	-10.0339
implement	-10.0348
▁long	-10.0353
Obj	-10.0355
shrink	-10.0355
google	-10.0356
manual	-10.0366
ION	-10.0369
ified	-10.037
▁schema	-10.0371
By	-10.0371
▁mod	-10.0382
SE	-10.0385
▁shared	-10.0387
association	-10.0388
xpath	-10.0391
Format	-10.0391
▁wrapsb	-10.0399
▁selected	-10.0399
handshake	-10.0404
ball	-10.0407
rjj	-10.0412
mar	-10.0412
compatible	-10.0413
▁owl	-10.0417
members	-10.0422
▁ephy	-10.0432
bookmarks	-10.0439
conditional	-10.0441
TFP	-10.0451
ellipse	-10.0454
▁couldnot	-10.0454
igiu	-10.0454
maps	-10.0458
kp	-10.0462
qlnetworkzitlszi	-10.0462
tlszue	-10.0462
dwki	-10.0463
▁real	-10.0463
ez	-10.0465
Make	-10.0468
defaults	-10.0469
PCHAR	-10.0472
rollback	-10.0473
setmax	-10.0474
dataobject	-10.0474
outof	-10.0476
lit	-10.0478
paragraph	-10.0483
jni	-10.0485
principal	-10.0487
notes	-10.0487
drm	-10.0488
Of	-10.0491
nx	-10.0494
Socket	-10.0495
qualifier	-10.0495
bss	-10.0495
Op	-10.0501
inq	-10.0506
▁camlMlpost	-10.0508
▁existing	-10.0508
zt	-10.0508
▁temp	-10.0511
▁td	-10.0517
exported	-10.0518
deserialize	-10.052
Send	-10.052
▁ar	-10.0533
posix	-10.0534
dll	-10.0538
always	-10.0538
moz	-10.0538
hack	-10.0541
colormap	-10.0547
composition	-10.055
grammar	-10.0553
▁vi	-10.0555
qc	-10.056
blue	-10.0561
wd	-10.0563
interest	-10.0568
violation	-10.057
Port	-10.0573
arrays	-10.0576
ual	-10.0577
RESOURCE	-10.0581
▁safe	-10.0587
suppress	-10.0588
▁fixed	-10.0589
inet	-10.0599
windowget	-10.0607
▁ipmi	-10.0611
opengl	-10.0618
srt	-10.0619
Request	-10.062
triple	-10.0621
cgi	-10.0623
▁sheet	-10.0623
scheduled	-10.0626
prog	-10.0627
▁ga	-10.0628
getdata	-10.0629
▁ag	-10.0631
importer	-10.0634
major	-10.0637
interleave	-10.064
objc	-10.0641
gps	-10.0642
jj	-10.0647
readerget	-10.0647
▁mc	-10.065
valuechanged	-10.0651
refcount	-10.0651
bn	-10.0655
blur	-10.0661
slide	-10.0664
die	-10.0665
STREAM	-10.0669
▁gnat	-10.0669
manifest	-10.0671
▁freeattributes	-10.0671
▁scheme	-10.0672
▁nd	-10.0679
Save	-10.068
▁getlast	-10.0682
connections	-10.0683
hive	-10.0684
kn	-10.0691
dimensions	-10.0699
packages	-10.0709
▁sv	-10.0715
strto	-10.0716
collapse	-10.0717
tn	-10.072
stereo	-10.0726
▁vl	-10.0727
launcher	-10.073
sdk	-10.073
▁V	-10.0731
methodcall	-10.0732
mission	-10.0734
SC	-10.0735
preference	-10.0735
▁dt	-10.0738
Clear	-10.0739
▁dyn	-10.0744
maxoutputbuffer	-10.0752
tran	-10.0757
REGISTER	-10.0764
▁clone	-10.0765
eth	-10.0765
watcher	-10.0769
▁template	-10.0769
▁be	-10.0775
cmdline	-10.0779
textfield	-10.0781
xc	-10.0782
cepns	-10.0786
xattr	-10.0787
rtp	-10.0789
▁cms	-10.0792
▁newt	-10.0797
▁param	-10.0798
dhcp	-10.0798
beta	-10.08
qinfo	-10.0801
minoutputbuffer	-10.0804
jit	-10.0804
Move	-10.0808
▁mca	-10.0819
▁url	-10.0823
qualified	-10.0825
trash	-10.0827
▁conf	-10.0829
▁wx	-10.0829
▁idirectmusic	-10.0833
newfrom	-10.0836
called	-10.0839
prod	-10.084
qui	-10.085
sensitive	-10.085
Func	-10.0853
ade	-10.0854
minfo	-10.0856
polar	-10.0858
kv	-10.086
tofile	-10.0863
ccc	-10.0866
cue	-10.0868
▁mt	-10.0872
▁newarray	-10.0873
SA	-10.0874
eo	-10.0875
liferay	-10.0885
ifaceinit	-10.0885
▁second	-10.0889
soap	-10.0889
▁persizu	-10.0893
fan	-10.0895
redo	-10.0902
may	-10.0903
removeall	-10.0904
▁download	-10.0906
parts	-10.0913
prime	-10.0914
routine	-10.0919
procedure	-10.0919
iconview	-10.0924
dense	-10.0931
▁populate	-10.0937
▁cx	-10.0939
ssi	-10.0953
▁ifc	-10.0954
barrier	-10.0963
▁ppl	-10.0964
separate	-10.0971
▁dr	-10.0975
blocking	-10.0978
wrapvalue	-10.0978
NAME	-10.098
getactive	-10.0986
csv	-10.0987
tele	-10.0987
▁cg	-10.0989
▁foproperty	-10.099
▁iv	-10.0993
ake	-10.0993
iisptr	-10.0997
CF	-10.1
three	-10.1002
lob	-10.1007
▁rp	-10.1008
▁setdefault	-10.1012
precision	-10.1015
pcnoutputitems	-10.1016
coordinate	-10.1021
stdio	-10.103
sssptr	-10.103
▁radeon	-10.1033
windowset	-10.1033
sltechniquepass	-10.1041
processed	-10.1043
restriction	-10.1043
CR	-10.1047
unwrapvalue	-10.1047
▁our	-10.105
decompress	-10.1053
▁inv	-10.1054
ddm	-10.1055
setter	-10.1055
▁icon	-10.1056
CHANGE	-10.1056
yk	-10.106
Var	-10.1068
hci	-10.1069
foreground	-10.1095
parsed	-10.1098
lite	-10.11
ifneeded	-10.1102
▁SYNHIGHLIGHTER	-10.1103
recording	-10.1106
canonical	-10.1108
accounts	-10.1109
question	-10.111
Def	-10.1113
fraction	-10.1115
setvalue	-10.1116
▁terminal	-10.1119
INIT	-10.1121
Default	-10.1122
▁socket	-10.1123
ous	-10.1126
behavior	-10.1138
guid	-10.1142
reorder	-10.1145
▁midi	-10.1151
Bit	-10.1151
suite	-10.1161
notifier	-10.1165
resultset	-10.1166
▁previous	-10.117
kr	-10.117
molecule	-10.1174
modem	-10.1174
▁qt	-10.1188
splitter	-10.1188
good	-10.1189
controls	-10.1191
DLGT	-10.1197
opaque	-10.1199
vx	-10.1202
▁prev	-10.1202
SH	-10.1203
structured	-10.1205
sms	-10.1207
expire	-10.121
▁conn	-10.1212
eventlistener	-10.1214
propagate	-10.1219
Graph	-10.1221
▁ro	-10.1222
starting	-10.1223
▁tx	-10.1225
Dis	-10.1225
diagnostic	-10.1227
delivery	-10.1232
▁baseghczi	-10.1244
prune	-10.1245
retrieve	-10.1245
contenttype	-10.1245
eur	-10.1253
estechniquepass	-10.1254
newline	-10.1255
wrapped	-10.1257
vfs	-10.1262
BUTTON	-10.1271
tsstd	-10.1272
ginfo	-10.1272
vendor	-10.1274
unstructuredgrid	-10.1283
▁mlx	-10.1284
javascript	-10.1288
sare	-10.1288
Dialog	-10.129
▁sound	-10.1296
Multi	-10.1299
testing	-10.13
bz	-10.1303
ei	-10.1307
spectrum	-10.1308
its	-10.1317
▁loqui	-10.1317
discover	-10.1319
templates	-10.1321
vid	-10.1322
contextmenu	-10.1326
PS	-10.1326
▁profile	-10.1333
modification	-10.1333
parametric	-10.1337
bindings	-10.1343
▁optpazu	-10.1344
ble	-10.1351
▁isvalid	-10.1355
lua	-10.1362
density	-10.1363
sector	-10.1366
osc	-10.1367
▁ompi	-10.1367
prepend	-10.1371
GC	-10.1372
rus	-10.1372
skin	-10.1375
enqueue	-10.1377
radiobutton	-10.1378
lane	-10.138
▁nmdbusdevice	-10.138
ach	-10.1382
▁setting	-10.1384
▁newarrayt	-10.1388
PKG	-10.1391
zdfdata	-10.1392
ofthe	-10.1396
letter	-10.1397
orderby	-10.1397
morph	-10.1399
uf	-10.14
▁da	-10.1401
blacklist	-10.1401
▁package	-10.1403
▁tv	-10.1406
lod	-10.1407
▁finish	-10.1414
deactivate	-10.1414
▁imapengine	-10.1414
gateway	-10.1418
dirs	-10.1424
tle	-10.1427
UI	-10.1428
refer	-10.1429
vn	-10.1429
▁valid	-10.1435
mid	-10.1435
hole	-10.1435
▁dec	-10.1435
txn	-10.1436
▁component	-10.1438
▁mime	-10.144
▁btn	-10.144
grant	-10.1449
wl	-10.1455
positions	-10.1458
classloader	-10.1465
interfaces	-10.1465
busy	-10.1467
▁ha	-10.1471
timeline	-10.1474
todo	-10.1476
NE	-10.1476
rtc	-10.1479
interaction	-10.1481
wh	-10.1484
▁unregister	-10.1484
ignored	-10.1486
yes	-10.1486
discovery	-10.1488
temporary	-10.149
deep	-10.1493
scaling	-10.1494
Pro	-10.1497
▁fc	-10.1499
▁mlgtk	-10.1505
hv	-10.1511
dsa	-10.1512
demo	-10.1512
listeners	-10.1512
expect	-10.1514
sziapplicativezi	-10.1518
getstring	-10.1519
notnull	-10.152
dq	-10.1523
▁goa	-10.1524
groovy	-10.1527
egl	-10.1528
signals	-10.1529
▁define	-10.1536
spatial	-10.1536
▁grub	-10.1547
▁volume	-10.1547
typeszi	-10.1562
▁netwozu	-10.1564
dfs	-10.1574
sax	-10.1578
▁fft	-10.1585
vdi	-10.1585
hz	-10.1586
▁camlD	-10.159
jsp	-10.1592
remaining	-10.1592
▁lw	-10.1594
proxynew	-10.1594
▁llvm	-10.1596
stride	-10.16
wcs	-10.16
▁qed	-10.1602
gradle	-10.1603
kbd	-10.1604
eof	-10.1611
Property	-10.1619
▁chipintel	-10.1619
presence	-10.162
▁dbuszu	-10.163
▁iscsi	-10.1633
thing	-10.1642
▁dataset	-10.1646
Net	-10.1646
winfo	-10.1651
white	-10.1655
authenticate	-10.1657
kaleo	-10.1657
friend	-10.1657
zp	-10.1661
Dir	-10.1662
MENU	-10.1668
tax	-10.167
producer	-10.1678
stylesheet	-10.1681
DI	-10.1681
positive	-10.1685
middle	-10.1685
constructed	-10.1689
▁hf	-10.169
gk	-10.1691
▁compiler	-10.1696
jinfo	-10.1696
slots	-10.1703
comparison	-10.1703
related	-10.1708
▁camlCode	-10.1708
Thread	-10.1711
Param	-10.1715
sysfs	-10.1717
▁choose	-10.1724
Bind	-10.1726
segments	-10.1729
TI	-10.1733
organization	-10.1741
comb	-10.1745
▁gccall	-10.1748
topo	-10.1748
deriv	-10.1749
sptrmessageports	-10.175
longlong	-10.1751
ports	-10.1756
▁wpa	-10.1758
▁left	-10.1761
ox	-10.1762
coeff	-10.1769
inherit	-10.1778
▁screen	-10.178
nan	-10.1783
▁settings	-10.1784
near	-10.1789
TWIDGETST	-10.1791
dg	-10.1794
except	-10.1798
▁ldap	-10.18
privatekey	-10.18
▁queue	-10.18
▁conv	-10.1801
fieldname	-10.1805
▁evaluate	-10.1805
orc	-10.1811
repr	-10.1815
dic	-10.1823
minute	-10.1825
unary	-10.1825
CK	-10.1825
openfile	-10.1834
pq	-10.1836
checkpoint	-10.1838
gdkevent	-10.1845
vb	-10.1848
rst	-10.185
spring	-10.1858
rsp	-10.186
merged	-10.1862
doesnot	-10.1869
Remove	-10.1873
PROCESS	-10.1874
sqrt	-10.1883
▁convertto	-10.1885
systemzi	-10.1891
▁richtext	-10.1894
chunks	-10.1907
Point	-10.1908
latex	-10.191
gx	-10.191
dna	-10.1912
ua	-10.1914
cred	-10.1917
fatal	-10.1928
ogg	-10.1934
vw	-10.1938
slash	-10.1938
notation	-10.1943
▁prop	-10.1953
publickey	-10.1955
cw	-10.1956
▁elf	-10.1957
warp	-10.1957
▁receive	-10.1959
phi	-10.1963
expanded	-10.1963
mit	-10.1965
ndmbr	-10.197
Do	-10.197
fff	-10.1972
▁nl	-10.1975
corr	-10.1979
gzzulujpmnvodbus	-10.1989
flex	-10.199
▁thiscall	-10.1991
green	-10.1997
▁scroll	-10.2002
▁probe	-10.2003
statechanged	-10.2004
reject	-10.2006
wf	-10.2007
▁pk	-10.201
buff	-10.201
managerget	-10.2019
cdf	-10.2029
fontsize	-10.2034
cdata	-10.2043
gnu	-10.205
▁nf	-10.2053
vcs	-10.206
sptrnitems	-10.2062
formats	-10.2065
aggregation	-10.2066
▁final	-10.2072
Parameter	-10.2072
rebuild	-10.2073
needs	-10.2075
regs	-10.2075
listbox	-10.208
▁bad	-10.2088
▁partition	-10.2088
ten	-10.2091
polyline	-10.2092
▁quick	-10.2094
tdunitbitpackedt	-10.2096
minor	-10.2097
▁IDirectMusic	-10.2097
▁nr	-10.21
indexes	-10.2102
▁cast	-10.2102
___	-10.211
mixin	-10.211
▁unexpected	-10.2112
▁ca	-10.2112
bmp	-10.2112
RT	-10.2115
▁cached	-10.2116
locations	-10.2116
populate	-10.2117
loss	-10.2124
criteria	-10.2125
▁ixgbe	-10.2125
days	-10.2134
▁checkfor	-10.2134
methodcallback	-10.2136
ancestor	-10.2139
▁sel	-10.214
controlzimonadzi	-10.2141
▁binary	-10.2142
illegal	-10.2144
interpret	-10.2149
CACHE	-10.2154
measurement	-10.2158
contract	-10.2161
▁rl	-10.2162
vtk	-10.2176
reserved	-10.2177
targets	-10.2177
sz	-10.2182
jk	-10.2185
▁lock	-10.2187
generation	-10.2187
▁double	-10.2191
errno	-10.2201
functor	-10.2202
ttl	-10.2203
▁transaction	-10.2206
▁join	-10.2207
▁clip	-10.2208
oct	-10.2218
regular	-10.2219
▁found	-10.2219
▁native	-10.2224
ana	-10.2227
har	-10.2227
battery	-10.2233
oy	-10.2233
initialise	-10.2235
ries	-10.2237
tray	-10.2237
dial	-10.2241
▁Acpi	-10.2243
protect	-10.2244
guest	-10.2246
PARSER	-10.2248
serializable	-10.2254
tier	-10.2262
expansion	-10.2263
▁mb	-10.2263
▁collection	-10.2264
dvd	-10.2265
ull	-10.2266
arraytappenderta	-10.2267
tan	-10.2271
train	-10.2272
Cursor	-10.2273
▁contact	-10.2274
TE	-10.2277
▁odoc	-10.2278
▁axis	-10.2278
▁gs	-10.2285
mic	-10.2287
CD	-10.229
primarykey	-10.2292
▁wrapGtk	-10.2295
fh	-10.2295
declarations	-10.2296
interactorstyle	-10.2296
then	-10.2297
sdjw	-10.2302
▁obj	-10.2303
acct	-10.2307
tjsrocnuksgvpke	-10.2312
▁dict	-10.2313
animator	-10.2316
tell	-10.2319
▁valadoc	-10.232
buffersize	-10.2321
▁ac	-10.2323
replacement	-10.2324
evaluator	-10.2327
lz	-10.2327
ghost	-10.2329
▁sip	-10.233
VIEW	-10.233
quadratic	-10.2332
▁ne	-10.2337
placement	-10.2339
configfile	-10.2342
weights	-10.2344
oi	-10.2346
filechooser	-10.2349
Matrix	-10.2352
directories	-10.2352
Control	-10.2353
▁bfa	-10.2354
hn	-10.2355
ATE	-10.2357
▁missing	-10.2359
▁sctp	-10.236
▁ts	-10.236
errormessage	-10.2364
reading	-10.2369
▁agent	-10.237
▁numberof	-10.2371
executable	-10.2373
brace	-10.2375
▁Abc	-10.2375
country	-10.2375
▁ogr	-10.2377
offline	-10.2378
feat	-10.2379
▁interp	-10.2382
▁nmdbus	-10.2382
demux	-10.2382
▁lwt	-10.2386
▁memory	-10.2387
ij	-10.2388
▁annotation	-10.2389
▁serialize	-10.2389
Local	-10.2393
unsupported	-10.2395
asc	-10.2398
pango	-10.2401
▁cert	-10.2408
want	-10.2411
▁pref	-10.2413
topc	-10.2418
intra	-10.2419
freeze	-10.242
opacity	-10.2423
Base	-10.2423
times	-10.2423
annot	-10.2426
seen	-10.2427
keypress	-10.2428
apn	-10.2429
referenced	-10.2432
Initialize	-10.2433
alternative	-10.2435
MS	-10.2435
leader	-10.2435
gem	-10.2436
subset	-10.2438
suggest	-10.244
Stat	-10.2441
returned	-10.2442
transient	-10.2443
aln	-10.2449
rating	-10.2452
▁pad	-10.2454
fsm	-10.2455
▁linux	-10.2456
mmap	-10.2459
which	-10.2465
▁mesa	-10.247
▁nb	-10.2472
▁fake	-10.2476
require	-10.2477
globals	-10.2489
▁missizu	-10.2493
integration	-10.2493
lim	-10.2493
edats	-10.2501
implget	-10.2501
tunnel	-10.2504
▁lterrc	-10.2505
▁composite	-10.2505
rglzz	-10.2514
▁pyx	-10.2516
kx	-10.2517
MOUSE	-10.2524
Register	-10.2524
eps	-10.2525
▁arm	-10.2525
Alloc	-10.2525
▁opengl	-10.2526
oes	-10.2528
mappings	-10.2535
transmit	-10.2537
tabs	-10.2539
ctr	-10.2539
fault	-10.2542
wav	-10.2542
▁TA	-10.2542
▁mus	-10.2543
GAMEBOARDPTR	-10.2544
qm	-10.2544
sibling	-10.2544
requires	-10.2551
Range	-10.2555
toint	-10.2556
▁em	-10.2557
dual	-10.2564
▁athk	-10.2565
mcp	-10.2568
▁getnumberof	-10.2569
Reset	-10.2577
filetype	-10.2583
hdl	-10.2583
▁rule	-10.259
currency	-10.2593
sinksptr	-10.2594
integral	-10.2595
layers	-10.2598
▁vc	-10.2601
TH	-10.2601
▁glget	-10.2603
ygdo	-10.2606
▁gkm	-10.2607
joint	-10.2607
jboss	-10.2616
queries	-10.2616
buttonpress	-10.2623
combined	-10.263
▁camlGui	-10.2636
▁semigzu	-10.2636
▁proto	-10.2637
▁swap	-10.2638
wakeup	-10.2641
dnqg	-10.2647
buddy	-10.2647
scal	-10.2649
flatten	-10.2649
setactive	-10.2651
UTILS	-10.2656
litiubhewedatazi	-10.2657
AC	-10.2659
des	-10.2662
tcl	-10.2667
viewget	-10.2668
▁dup	-10.267
▁au	-10.2671
translator	-10.2679
sptrunset	-10.2679
▁attach	-10.2685
getattr	-10.2687
ification	-10.2698
online	-10.2699
cms	-10.27
zh	-10.2706
▁vaapi	-10.271
cavcf	-10.271
getitem	-10.2712
ih	-10.2713
▁am	-10.2713
ior	-10.2717
mini	-10.2719
nrfo	-10.2722
typesmod	-10.2723
vhi	-10.2729
mechanism	-10.273
gesture	-10.273
strn	-10.2731
installed	-10.2732
brep	-10.2736
NS	-10.2737
dnd	-10.2737
▁genop	-10.2739
ics	-10.2742
ime	-10.2744
javalang	-10.2744
Status	-10.2744
IMAGE	-10.2746
working	-10.2747
▁vmw	-10.2753
▁fd	-10.276
affine	-10.2763
▁region	-10.2766
▁psi	-10.2767
ou	-10.277
successful	-10.2781
ltopriv	-10.2782
uchar	-10.2787
mtx	-10.279
PC	-10.2793
formatted	-10.2795
levels	-10.2801
errorhandler	-10.2803
Cache	-10.2803
cols	-10.2805
amd	-10.2807
koncludereasoner	-10.2813
Reg	-10.2814
MOD	-10.2816
expressions	-10.2822
uu	-10.2823
performance	-10.2831
broker	-10.2834
Render	-10.2835
building	-10.2835
▁bl	-10.2838
US	-10.2838
ym	-10.2841
setcolor	-10.2841
supports	-10.2843
repl	-10.2844
EC	-10.2845
surf	-10.2845
opteron	-10.2845
▁mo	-10.2845
Not	-10.285
▁par	-10.2851
▁pe	-10.2852
flt	-10.2853
▁token	-10.2862
else	-10.2865
▁driver	-10.2868
Byte	-10.2868
tdunitslicebitsv	-10.2868
▁big	-10.2872
annotated	-10.2873
▁ai	-10.2875
patterns	-10.288
ek	-10.2892
▁byte	-10.2908
bracket	-10.2918
assigned	-10.2921
bdd	-10.2924
▁history	-10.2927
apache	-10.2928
ontology	-10.2929
distinct	-10.2929
▁mv	-10.2931
▁modify	-10.2938
▁transfer	-10.2938
bootstrap	-10.294
normalized	-10.294
Out	-10.2941
▁pm	-10.2941
▁ja	-10.2948
listinfo	-10.2949
dft	-10.295
subtree	-10.295
INDEX	-10.2951
▁stubo	-10.2954
effective	-10.2957
stretch	-10.2961
xfer	-10.2963
deliver	-10.2968
▁attr	-10.297
WINDOW	-10.2971
▁camlLm	-10.2972
images	-10.2973
▁scale	-10.2974
issame	-10.2975
userdata	-10.2976
hb	-10.2977
encryption	-10.2978
▁strip	-10.298
Style	-10.2982
tactic	-10.2982
mil	-10.2983
bytecode	-10.2984
cause	-10.2984
incorrect	-10.2988
▁insertinto	-10.2988
▁sci	-10.2989
Per	-10.2997
hour	-10.2997
envelope	-10.2999
▁camlGraph	-10.3001
Shell	-10.3004
▁lang	-10.3009
DF	-10.3011
MAP	-10.3015
____	-10.3015
oauth	-10.3016
ump	-10.3016
▁full	-10.3022
pairs	-10.3025
▁getuser	-10.3025
openssl	-10.3029
goal	-10.303
OP	-10.3041
▁android	-10.3046
prot	-10.3052
Output	-10.3062
latest	-10.3064
arith	-10.3069
▁kill	-10.307
Mem	-10.3071
predict	-10.3071
ona	-10.3071
rss	-10.3074
vers	-10.3078
destroyed	-10.3079
stamp	-10.3081
membership	-10.3083
subtitle	-10.3089
rich	-10.309
DC	-10.3092
oom	-10.3095
▁short	-10.3097
greeter	-10.31
COMPILER	-10.3111
hardware	-10.3111
POS	-10.3115
bluetooth	-10.3122
det	-10.3122
wildcard	-10.3123
qv	-10.3125
▁bin	-10.3128
deletion	-10.3133
ally	-10.3136
spot	-10.3138
▁unity	-10.3142
▁realm	-10.315
inject	-10.3154
▁standard	-10.3155
sweep	-10.3158
iff	-10.3159
ish	-10.3161
▁clock	-10.3162
pkc	-10.3163
multipart	-10.3164
mass	-10.3165
ALL	-10.3167
▁curr	-10.3182
amr	-10.3182
listadd	-10.3182
And	-10.3183
fake	-10.3185
qua	-10.3189
fileinfo	-10.319
SEARCH	-10.3198
transformer	-10.3199
chi	-10.32
encrypted	-10.3201
VARIANT	-10.3208
linker	-10.3212
▁mg	-10.3212
offsets	-10.3214
protected	-10.3215
▁rr	-10.3218
nodeid	-10.3222
offer	-10.3229
▁mrb	-10.323
▁LC	-10.3233
▁tmpgtk	-10.3235
▁sam	-10.3237
annotate	-10.3241
esc	-10.3243
▁viterbicombined	-10.3246
▁packet	-10.3246
addto	-10.3247
thr	-10.325
repair	-10.3259
eal	-10.3263
linfo	-10.3263
▁robot	-10.3267
aware	-10.3269
ail	-10.3269
▁pn	-10.3274
damage	-10.3275
CON	-10.3275
▁setcurrent	-10.3275
fig	-10.3276
synchronized	-10.3276
▁xen	-10.3279
reflect	-10.3281
▁udp	-10.3282
transformation	-10.3282
chapter	-10.3285
qname	-10.3286
▁env	-10.3291
emp	-10.3291
popupmenu	-10.3296
syscall	-10.3297
▁direct	-10.3299
credit	-10.3301
fence	-10.3302
verbose	-10.3307
deferred	-10.3307
▁tg	-10.3308
avatar	-10.3308
arity	-10.3308
equation	-10.331
getkey	-10.331
▁ddeffect	-10.3312
▁super	-10.3312
PROP	-10.3317
connectivity	-10.3318
refine	-10.3319
▁ipv	-10.3323
asyncready	-10.3323
▁right	-10.3327
▁obus	-10.3328
proxynewforbus	-10.3329
imap	-10.3332
rtl	-10.3333
miss	-10.3334
nest	-10.3335
lag	-10.3338
FOR	-10.334
▁pie	-10.3348
HANDLE	-10.3349
compositor	-10.3351
With	-10.3351
bios	-10.3352
keyvalue	-10.3357
▁browser	-10.3358
pure	-10.3361
GL	-10.3363
company	-10.3364
READER	-10.3366
symtab	-10.3367
anon	-10.3371
gz	-10.3376
four	-10.3377
skeletondbus	-10.3387
srv	-10.3388
▁wait	-10.3388
▁winestubo	-10.3391
parametertypes	-10.3397
ich	-10.3398
lw	-10.3402
▁after	-10.3412
HTML	-10.3414
GRID	-10.3417
gmp	-10.342
drawing	-10.3423
jms	-10.3428
different	-10.3429
utc	-10.3437
AD	-10.3439
cent	-10.344
▁regexzu	-10.3441
▁crypto	-10.3443
selectionchanged	-10.3444
getparent	-10.3445
▁option	-10.3445
tablename	-10.3449
jobs	-10.3454
▁security	-10.3454
mpq	-10.3455
advanced	-10.3457
who	-10.3458
User	-10.3461
▁julia	-10.3462
vayaa	-10.3467
gif	-10.347
AM	-10.347
hmm	-10.3473
kt	-10.3476
Back	-10.3478
placeholder	-10.3485
▁vis	-10.3486
configured	-10.3487
▁unit	-10.3489
study	-10.3496
lac	-10.3498
nw	-10.35
fil	-10.35
▁sensor	-10.3502
▁isin	-10.3505
boxes	-10.3511
▁arch	-10.3521
stock	-10.3528
▁note	-10.3529
SON	-10.353
▁expect	-10.353
iation	-10.3532
profiles	-10.3535
kw	-10.3541
PTR	-10.3543
▁pkcs	-10.3544
preserve	-10.3548
caller	-10.3549
▁rewrite	-10.3549
▁lambda	-10.355
▁parallel	-10.3551
declared	-10.3553
selectall	-10.3555
Ext	-10.3559
zc	-10.3562
Parser	-10.3563
jvm	-10.3565
▁dev	-10.3569
uiv	-10.3571
pie	-10.3573
▁transport	-10.3574
sensitivity	-10.3575
Match	-10.3575
▁union	-10.3578
reflection	-10.3578
Group	-10.3586
Exp	-10.359
extractor	-10.3596
▁throw	-10.3596
yesodzicorezi	-10.3597
mut	-10.3603
jack	-10.3606
▁implicit	-10.3609
progressbar	-10.3612
cubic	-10.362
TOKEN	-10.3622
writing	-10.3631
lut	-10.3633
deleteref	-10.3634
readline	-10.3639
▁folder	-10.364
▁camera	-10.3644
mismatch	-10.3645
▁gsd	-10.3646
chg	-10.3647
▁lpp	-10.3652
revert	-10.3654
MODE	-10.3661
bgr	-10.3674
pam	-10.3676
▁btrfs	-10.3677
▁reduce	-10.3677
TIDE	-10.368
enforce	-10.3681
▁we	-10.3683
clamp	-10.3683
▁cducelibcduce	-10.3691
vqi	-10.3691
injection	-10.3691
▁vfs	-10.3693
▁en	-10.3695
approx	-10.3695
cvs	-10.3705
incremental	-10.3707
shuffle	-10.3711
notice	-10.3713
callbacks	-10.3714
rnd	-10.3714
▁nc	-10.372
▁accept	-10.3725
quoted	-10.3725
uniqueid	-10.3727
▁lt	-10.3727
spaces	-10.3729
unk	-10.3729
▁meep	-10.3733
▁mpeg	-10.3734
dwarf	-10.3736
▁framework	-10.3737
pose	-10.374
matched	-10.3744
LOAD	-10.3745
▁reg	-10.3747
▁cpl	-10.3755
▁inline	-10.3755
floating	-10.3761
▁supports	-10.3764
tablecell	-10.3765
▁iso	-10.3765
▁foo	-10.3767
trunc	-10.3767
Instance	-10.3769
ccompesats	-10.3769
ofdm	-10.3772
▁sym	-10.3778
▁sge	-10.378
snippet	-10.378
resampler	-10.3786
▁drm	-10.3786
AB	-10.3793
solution	-10.3796
initialization	-10.3797
subtype	-10.3799
nam	-10.3803
interpolation	-10.3803
▁dcore	-10.3809
scf	-10.381
▁err	-10.381
decision	-10.3815
gauss	-10.3821
moved	-10.3827
yuv	-10.3827
artist	-10.3829
▁utf	-10.383
regions	-10.383
keymap	-10.3833
▁pick	-10.3836
filelist	-10.3837
license	-10.3838
inspector	-10.3839
▁setmax	-10.3839
eigen	-10.3839
▁ocfs	-10.3841
EA	-10.3841
▁fz	-10.3841
cpk	-10.3844
destructor	-10.3846
ips	-10.3846
▁gpgme	-10.385
workflow	-10.3851
logfile	-10.3854
▁jssvg	-10.3856
▁goto	-10.386
Source	-10.3861
ulate	-10.3868
hal	-10.3869
Connection	-10.3876
▁PRO	-10.3877
▁ie	-10.3879
ARB	-10.3884
arp	-10.3887
oper	-10.3889
roles	-10.3889
▁rename	-10.3889
▁propertygrid	-10.3889
hinfo	-10.3893
oem	-10.3893
▁construct	-10.3899
trsm	-10.39
vv	-10.3903
UR	-10.3903
verb	-10.3906
iw	-10.3907
tolerance	-10.3908
menubar	-10.3911
izzq	-10.3912
▁ntk	-10.3916
▁batch	-10.3918
unorm	-10.3919
fnanbnf	-10.3921
TPS	-10.3925
▁gp	-10.3927
▁trigger	-10.3929
editing	-10.3931
privilege	-10.3931
prevandnext	-10.3931
▁swf	-10.3941
faces	-10.3942
tlv	-10.3943
▁dstdformatt	-10.3943
sampling	-10.3943
webview	-10.3946
▁lb	-10.3947
ruler	-10.3948
▁posix	-10.3949
spinner	-10.3949
terrain	-10.3954
▁gstvaapi	-10.3955
COMP	-10.396
paper	-10.3966
oftype	-10.3968
concurrent	-10.3978
paren	-10.398
aaa	-10.398
▁pcap	-10.3981
ppp	-10.3984
velocity	-10.399
polynomial	-10.399
▁chart	-10.3994
contain	-10.3996
ward	-10.4005
wind	-10.4008
apr	-10.4009
fileread	-10.4016
allocated	-10.4017
xslt	-10.4017
dag	-10.4018
▁gfs	-10.402
DS	-10.4021
tape	-10.4023
▁retrieve	-10.4026
reloc	-10.4027
▁fetchby	-10.4029
substring	-10.403
MD	-10.4033
prettyprint	-10.4035
asyncco	-10.4035
bezier	-10.4038
readable	-10.4039
▁setshow	-10.404
finite	-10.4041
icmp	-10.4042
pager	-10.4043
ati	-10.4051
hkfd	-10.4054
ya	-10.4054
httprequest	-10.4055
mgmt	-10.4056
stopped	-10.4059
dodims	-10.406
mutation	-10.4061
▁gwtmp	-10.4061
cab	-10.4061
FONT	-10.4062
▁editor	-10.4062
▁wl	-10.4062
▁gdip	-10.4065
Selection	-10.4066
ny	-10.4068
IL	-10.407
▁textzuc	-10.4073
characters	-10.4074
TR	-10.4075
tensor	-10.4081
integrate	-10.4081
▁xp	-10.4081
zitypeszdf	-10.4087
rhs	-10.4089
▁wrong	-10.4094
tilde	-10.4097
CREATET	-10.4101
uck	-10.4107
▁tm	-10.4108
COMMAND	-10.4109
▁xa	-10.411
insertion	-10.4112
EL	-10.4116
derived	-10.412
▁msvcrt	-10.4121
xdr	-10.4124
newwith	-10.4125
▁hd	-10.4132
marks	-10.4132
CONFIG	-10.4133
Comp	-10.4141
tar	-10.4143
PROPERTY	-10.4143
tech	-10.4144
lift	-10.4149
▁streamert	-10.4149
closest	-10.4151
Up	-10.4155
▁AbcNtk	-10.4157
WIDGET	-10.4162
▁help	-10.4163
projects	-10.4167
UP	-10.4167
▁aesonzu	-10.4169
▁fn	-10.4169
▁getfirst	-10.418
CLEAR	-10.4181
iges	-10.4181
epns	-10.4183
▁inc	-10.4185
Page	-10.419
csr	-10.4192
MACRO	-10.4193
▁slicr	-10.4193
Lock	-10.4193
OPTIONSFRAME	-10.4193
▁srv	-10.4195
▁disk	-10.4197
smartscopes	-10.42
▁tracker	-10.42
▁login	-10.4203
DEFAULT	-10.4205
ATION	-10.4206
▁got	-10.4207
ywd	-10.4208
▁capture	-10.4208
ham	-10.4211
▁stack	-10.4213
DA	-10.4217
deref	-10.4219
another	-10.4221
focused	-10.4221
ath	-10.4222
canbe	-10.4228
GROUP	-10.4229
rop	-10.423
waiting	-10.4236
hover	-10.4239
▁tls	-10.4239
tofloat	-10.424
apt	-10.4241
serialized	-10.4244
here	-10.4252
Internal	-10.4253
jdk	-10.4255
setcurrent	-10.4255
▁master	-10.4256
▁ftp	-10.4258
crt	-10.426
intel	-10.426
exif	-10.4261
tdd	-10.4263
notifications	-10.4267
▁platform	-10.4267
▁gslsf	-10.4269
animated	-10.4269
▁form	-10.4269
periodic	-10.4271
delimiter	-10.4273
Convert	-10.4279
rewind	-10.4293
hosts	-10.4297
drawer	-10.4304
gid	-10.4306
digits	-10.4307
SHOW	-10.4314
compilation	-10.432
▁cil	-10.4322
▁invalidate	-10.4324
▁uv	-10.4325
hibernate	-10.4326
▁setuse	-10.4326
lifecycle	-10.4326
izing	-10.4328
vk	-10.4329
bold	-10.4336
▁prefs	-10.4337
since	-10.4338
sdr	-10.434
▁pro	-10.4345
sstdunit	-10.4348
obs	-10.435
▁place	-10.4355
adj	-10.4355
shot	-10.4364
▁gearyimapengine	-10.4365
folders	-10.4367
▁eap	-10.4367
AP	-10.4375
boundingbox	-10.4375
▁zeroinstall	-10.4375
▁struct	-10.4377
widgetget	-10.4378
Par	-10.4382
fuse	-10.4388
snmp	-10.439
aliases	-10.4392
DEBUGGER	-10.4392
trait	-10.4396
natural	-10.4399
▁staticcallback	-10.44
Rect	-10.4402
App	-10.4402
▁gnutls	-10.4403
exe	-10.4406
both	-10.4407
adv	-10.4409
widgets	-10.4409
Service	-10.4411
zdfread	-10.4411
weighted	-10.4416
synchronize	-10.4421
▁typeszi	-10.4424
▁determine	-10.4429
sethooks	-10.4429
bias	-10.4431
▁bitmap	-10.4441
filled	-10.4442
hq	-10.4446
erkns	-10.4447
▁wrapgwy	-10.4448
gtkwindow	-10.4448
MARK	-10.4448
getlast	-10.4454
▁bc	-10.4456
TL	-10.4457
ccyjn	-10.4461
temporal	-10.4461
glue	-10.4462
▁mouse	-10.4462
▁follow	-10.4463
Mark	-10.4465
▁dw	-10.4465
ansi	-10.4467
▁noop	-10.4469
coding	-10.4469
overview	-10.4469
detected	-10.4471
erdataziaesonzi	-10.4473
leg	-10.4479
definitions	-10.448
zitypes	-10.4481
anonymous	-10.4485
▁poly	-10.4486
▁mis	-10.4501
depend	-10.4505
logo	-10.451
▁prebegin	-10.4512
▁jl	-10.4514
▁rte	-10.4514
noop	-10.4514
CLICKTO	-10.4515
bbox	-10.4516
orb	-10.4517
▁detect	-10.4521
updater	-10.4522
Screen	-10.4523
spinbutton	-10.453
▁invoke	-10.4533
zdwzdc	-10.4534
software	-10.4535
GRAPH	-10.4538
izze	-10.4541
animate	-10.4546
favorite	-10.4548
bot	-10.455
▁virtual	-10.4551
notsupported	-10.4556
▁mesh	-10.4557
websocket	-10.4572
latency	-10.4573
buttonrelease	-10.4574
Compare	-10.4576
urls	-10.4579
nifti	-10.458
vnc	-10.4586
shm	-10.4587
▁mix	-10.4587
usr	-10.4589
▁camlU	-10.4593
preprocess	-10.4602
swf	-10.4603
ticks	-10.4604
▁some	-10.4606
human	-10.461
cssproperty	-10.461
pangolayout	-10.4612
blocked	-10.4612
▁ib	-10.4614
backing	-10.4619
assistant	-10.4623
Search	-10.4624
semi	-10.4629
ews	-10.4631
ioread	-10.4632
layoutstrategy	-10.4634
collision	-10.4635
argv	-10.4636
▁preend	-10.4636
sortby	-10.4638
Setup	-10.4641
▁database	-10.4646
given	-10.4648
CS	-10.4649
stem	-10.4649
▁pmpi	-10.466
specification	-10.4663
throughput	-10.4665
bandwidth	-10.4668
▁reverse	-10.4668
compiled	-10.4669
▁board	-10.4669
▁dx	-10.4669
streamer	-10.4671
vcmr	-10.4677
▁me	-10.4683
▁res	-10.4683
sourceget	-10.4684
cocci	-10.4685
skwpkidatazitext	-10.4686
Script	-10.4686
xjeng	-10.4686
canon	-10.4686
▁maven	-10.4688
Call	-10.4688
▁glp	-10.4691
▁scccdecoder	-10.4698
social	-10.4698
▁dsp	-10.4707
▁enter	-10.4709
▁idirect	-10.4709
CM	-10.4716
icons	-10.4721
burn	-10.4723
specifier	-10.4724
attributevalue	-10.4725
▁rfc	-10.4726
ending	-10.4729
Num	-10.4731
Sim	-10.4732
defs	-10.4736
zinfo	-10.4736
student	-10.4736
Build	-10.4736
Resource	-10.4736
handling	-10.4737
ner	-10.4742
▁SYSTEM	-10.4742
marked	-10.4747
ledoublegr	-10.4749
fnanbnine	-10.4751
pac	-10.4756
timed	-10.4756
quickfix	-10.4757
▁ddrm	-10.4761
pay	-10.4762
xyu	-10.4765
vtable	-10.4765
▁access	-10.4767
symlink	-10.4772
▁sidlxrmisim	-10.4772
occ	-10.4774
recipient	-10.4774
▁hourgzu	-10.4774
computed	-10.4774
diagram	-10.4778
wq	-10.478
cdk	-10.4785
▁qlax	-10.4793
ingcontext	-10.4796
▁constraint	-10.4798
Connect	-10.481
axaz	-10.4811
containing	-10.4811
▁giaman	-10.4813
optimization	-10.4813
shown	-10.4815
incr	-10.4816
ImplGet	-10.4817
Cert	-10.4818
calculator	-10.4826
▁ecl	-10.483
MESSAGE	-10.4838
yazbycodeunitf	-10.484
jdbc	-10.484
REMOVE	-10.4841
▁combine	-10.4846
vdw	-10.4847
mech	-10.485
fwd	-10.4852
▁cudd	-10.4852
phrase	-10.4859
▁unicode	-10.486
▁GiaMan	-10.4864
uit	-10.4865
▁work	-10.4866
chord	-10.4867
than	-10.4869
▁fail	-10.4874
Reader	-10.4874
SETTINGS	-10.4877
outgoing	-10.4877
▁netsys	-10.4878
▁ncsahdfhdflibh	-10.4879
structuredgrid	-10.488
widgetset	-10.4881
▁domain	-10.4886
multicast	-10.4889
▁chat	-10.489
persona	-10.4892
▁tt	-10.4894
throttle	-10.4903
qjq	-10.4903
starttime	-10.4904
backgroundcolor	-10.4908
stone	-10.4909
immutable	-10.491
▁getselected	-10.4915
lpfgu	-10.4916
▁container	-10.4922
jbfil	-10.4922
No	-10.4923
▁perftrace	-10.4929
later	-10.4931
iowrite	-10.4932
trx	-10.4932
describe	-10.4935
whole	-10.4935
fda	-10.4936
▁resize	-10.4939
substitute	-10.4941
migrate	-10.4942
ayazbycodeunit	-10.4947
filterset	-10.495
▁two	-10.4953
▁dstdunit	-10.4953
xmm	-10.4954
classifier	-10.4955
torrent	-10.4955
learn	-10.4955
▁timer	-10.4957
playing	-10.4958
subclass	-10.4958
▁popup	-10.4958
▁wc	-10.4964
hmac	-10.497
textzi	-10.4974
▁have	-10.4974
▁csv	-10.4975
modal	-10.4976
ky	-10.4979
protobuf	-10.4979
clu	-10.498
aceeventrawevent	-10.4981
▁oasis	-10.4981
getdevice	-10.4993
saturation	-10.4993
decoration	-10.4994
Token	-10.4994
zaya	-10.4998
▁pango	-10.5002
fog	-10.5007
▁mon	-10.5009
▁ma	-10.5014
Pos	-10.5019
▁photos	-10.5021
deserializer	-10.5026
conditions	-10.503
▁ejb	-10.5033
arrayname	-10.5035
▁activate	-10.5037
variance	-10.5037
za	-10.5039
▁Do	-10.5041
above	-10.5045
increase	-10.5046
Action	-10.5046
▁lz	-10.5055
stdout	-10.5064
▁normalize	-10.5068
automatic	-10.5072
critical	-10.5073
binder	-10.5074
▁sy	-10.5075
sam	-10.5083
erk	-10.5084
toc	-10.5085
PR	-10.5087
▁glx	-10.5096
iir	-10.5111
Number	-10.5126
bounded	-10.5126
jn	-10.5129
Edit	-10.5138
Store	-10.5144
▁opal	-10.5144
ground	-10.5145
▁metadata	-10.5145
OO	-10.5146
▁col	-10.5148
▁lex	-10.515
tzuzdc	-10.5151
TPOINT	-10.5151
pragma	-10.5151
USE	-10.5153
▁dbg	-10.5156
contig	-10.5156
vsf	-10.5162
exn	-10.5163
diagonal	-10.5164
medium	-10.5165
nfc	-10.5169
baseline	-10.5175
rfc	-10.5177
▁ocamlbuildpack	-10.5178
▁amdgpu	-10.5178
▁findercolumn	-10.5179
fileentry	-10.518
inactive	-10.518
even	-10.5183
wnd	-10.5187
SW	-10.5187
urb	-10.5194
LCL	-10.5198
dont	-10.52
health	-10.5204
▁vb	-10.5204
zdwa	-10.521
brick	-10.521
groupby	-10.5213
credential	-10.5213
Host	-10.5218
pole	-10.5219
parserparse	-10.5222
hor	-10.5222
texcoord	-10.5222
Interface	-10.5226
rack	-10.5228
▁ctrl	-10.5229
bang	-10.5229
announce	-10.5231
reduction	-10.5231
ute	-10.5238
▁enum	-10.5244
zuzdczsze	-10.5244
▁xdr	-10.5249
qi	-10.5252
baz	-10.5255
Http	-10.5258
▁rg	-10.5259
▁bnxx	-10.526
prof	-10.5262
Field	-10.5271
▁it	-10.5271
▁rotate	-10.5272
enumerator	-10.5273
percentage	-10.5274
javadoc	-10.5275
dav	-10.5277
pll	-10.5277
elim	-10.5279
Encode	-10.5279
atabasezipersist	-10.5282
COM	-10.5283
▁vt	-10.5287
tablerow	-10.5288
CHANGED	-10.5289
Cell	-10.529
mpris	-10.5294
▁shakezu	-10.5298
Position	-10.5298
recorder	-10.5303
verse	-10.5306
lcd	-10.5307
getversion	-10.5309
pubkey	-10.5312
Arg	-10.5316
ofstring	-10.5317
edited	-10.5317
TCOMPONENT	-10.532
PA	-10.5321
coallocatorle	-10.5323
nil	-10.5324
▁pkix	-10.5326
sections	-10.5327
OS	-10.5328
cerkns	-10.5329
eng	-10.5329
qwt	-10.5329
▁camlR	-10.533
Decode	-10.5332
migration	-10.5338
▁finderpathwith	-10.5338
unity	-10.5339
▁pyxpw	-10.534
fileopen	-10.5341
stringarray	-10.5343
ordinal	-10.5351
▁arc	-10.5352
LISTVIEW	-10.5354
realset	-10.5362
TSYNEDIT	-10.5368
PATH	-10.5377
▁undo	-10.5378
▁camlOcamlbuild	-10.5379
inhibit	-10.5379
▁rest	-10.5381
PARSE	-10.5384
ign	-10.5384
Th	-10.5386
▁segment	-10.5386
▁zone	-10.5386
viterbi	-10.5388
▁acc	-10.5389
trade	-10.5389
isra	-10.5389
Tool	-10.5393
PI	-10.5395
Media	-10.5396
identify	-10.5396
anti	-10.5399
▁createtable	-10.5401
▁unpack	-10.5406
▁pcccdecoder	-10.5406
TP	-10.5406
imageview	-10.5407
MI	-10.5412
statsclcl	-10.5413
attached	-10.5416
▁chk	-10.5419
▁PASDOC	-10.5419
cylinder	-10.5419
provide	-10.5423
ccomp	-10.5427
imag	-10.543
▁mac	-10.543
hhxr	-10.5433
algebra	-10.5433
islocal	-10.5434
▁dddevice	-10.5434
▁jack	-10.5435
effects	-10.544
MSG	-10.5442
stuff	-10.5444
numbers	-10.5446
Lib	-10.5446
eerlrvugxgtextzi	-10.5447
avail	-10.5461
▁lpfc	-10.5471
framework	-10.5473
polyhedron	-10.5474
dfa	-10.5482
▁act	-10.5482
mgk	-10.5485
modifiers	-10.5487
▁gearyimap	-10.549
recycle	-10.55
respond	-10.5502
▁winestubS	-10.5508
propagation	-10.5515
▁unset	-10.5516
unpacked	-10.5517
idea	-10.5517
▁monitor	-10.5519
ami	-10.5521
▁exit	-10.5521
dark	-10.5525
showmembers	-10.5527
vif	-10.5535
ruby	-10.5538
resample	-10.5541
Player	-10.5543
replication	-10.5544
boxed	-10.5545
serialization	-10.5546
▁gdal	-10.5553
vehicle	-10.5556
brightness	-10.5556
AND	-10.5556
comma	-10.5558
saisee	-10.5559
too	-10.5559
byindex	-10.5559
promise	-10.556
▁managed	-10.5567
ANSISTRINGT	-10.557
detection	-10.557
Header	-10.557
eff	-10.5574
▁fw	-10.5578
▁wave	-10.5578
crash	-10.5581
▁increment	-10.5582
verifier	-10.5584
closing	-10.5587
docs	-10.5589
formal	-10.5591
pco	-10.5592
▁sum	-10.5593
▁dist	-10.5593
▁atom	-10.5595
Label	-10.5598
▁awszu	-10.5598
Level	-10.5598
Program	-10.5599
▁pkixpl	-10.56
▁flow	-10.5601
streams	-10.5609
highlighter	-10.561
▁ot	-10.5611
kerberos	-10.5611
panorama	-10.5612
VAR	-10.5614
▁nested	-10.5614
▁inner	-10.5616
columncolumnname	-10.5616
sharp	-10.5617
Prop	-10.5623
ARRAY	-10.5625
neighbour	-10.5625
scratch	-10.5625
ptp	-10.5628
TRECT	-10.5628
hits	-10.5629
imported	-10.5634
queued	-10.5634
succ	-10.5639
ition	-10.5648
Tex	-10.5652
keepalive	-10.5654
Code	-10.5655
gtkaction	-10.5656
dexp	-10.5661
intrin	-10.5661
▁pgr	-10.5662
▁kvm	-10.5664
inspect	-10.5666
Function	-10.5669
beans	-10.5674
vel	-10.5674
▁acd	-10.5675
counters	-10.5677
▁printer	-10.5678
▁globalsubiznc	-10.5679
FILTER	-10.5681
UTF	-10.5683
CC	-10.5685
occurrence	-10.5695
patient	-10.5695
cerk	-10.5701
deps	-10.5701
intercept	-10.5702
▁gset	-10.5704
ipaddress	-10.5705
orient	-10.5707
hang	-10.5708
tune	-10.5708
zuzdczeze	-10.5709
configurable	-10.5709
zugo	-10.5712
again	-10.5715
excluded	-10.5716
linewidth	-10.5717
indexof	-10.5719
intarray	-10.572
wake	-10.5721
Remote	-10.5723
applicationslens	-10.5723
counts	-10.5725
▁pq	-10.5726
Texture	-10.5727
foobar	-10.5731
tiff	-10.5732
intf	-10.5733
iate	-10.5735
joystick	-10.5737
rho	-10.5738
URL	-10.5739
socks	-10.5739
junit	-10.5741
through	-10.5743
customer	-10.5743
Options	-10.5754
internalgtkos	-10.5755
▁jdbc	-10.5756
walker	-10.5758
▁camlA	-10.5759
cart	-10.576
tarighioecdawszi	-10.5765
descriptors	-10.5767
documentation	-10.5768
▁rx	-10.5772
▁keep	-10.5776
▁any	-10.5777
STATE	-10.578
LONGINTBOOLEAN	-10.5781
wrong	-10.5783
▁streaming	-10.5784
ordering	-10.5787
qos	-10.5787
▁archive	-10.5791
▁datetime	-10.5792
sourceset	-10.5797
gdb	-10.5801
svm	-10.5801
figure	-10.5803
utter	-10.5804
Run	-10.5805
tgt	-10.5807
▁lower	-10.581
ality	-10.5816
Ch	-10.5817
curr	-10.5821
Show	-10.5823
bitrate	-10.5823
expired	-10.5826
vga	-10.5827
▁pStub	-10.5828
tracks	-10.583
lost	-10.5832
▁asn	-10.5832
▁aui	-10.5833
Insert	-10.5836
inversionlistt	-10.5836
▁hg	-10.5837
cstr	-10.584
fully	-10.5842
aud	-10.5842
rcv	-10.5843
validity	-10.5844
iterable	-10.5857
▁scope	-10.5858
DEFINE	-10.5864
DOUBLE	-10.5864
shr	-10.5865
wz	-10.5867
richcompare	-10.5869
associated	-10.5869
aggregator	-10.5872
candidates	-10.5874
▁spi	-10.5877
hierarchical	-10.5878
▁ngxhttp	-10.5878
leading	-10.588
▁python	-10.5885
OPTIONST	-10.5887
decrement	-10.5893
▁progress	-10.5894
burst	-10.5894
relationship	-10.5895
arrayof	-10.5897
▁vtkpv	-10.5897
publisher	-10.59
clk	-10.591
extends	-10.5913
dac	-10.592
recognize	-10.5921
EXTENDED	-10.5921
fac	-10.5921
inprogress	-10.5923
▁spice	-10.5929
▁before	-10.593
▁upgrade	-10.5932
sentence	-10.5936
what	-10.594
easy	-10.5943
equality	-10.5943
xsd	-10.5945
ziinternalzi	-10.5945
▁notification	-10.5945
▁product	-10.5947
▁ocsigen	-10.595
Wait	-10.5951
▁msi	-10.5961
▁snap	-10.5961
transparent	-10.5961
partitions	-10.597
Tag	-10.5971
treat	-10.5974
strdup	-10.5977
restrict	-10.5978
analyse	-10.5979
▁req	-10.5979
Compute	-10.5979
arn	-10.5979
latch	-10.5986
▁pstub	-10.5987
ENT	-10.5987
exa	-10.5989
jd	-10.5989
utilget	-10.5991
▁tiff	-10.5993
mkdir	-10.5995
requests	-10.5998
filewrite	-10.6003
▁console	-10.6007
tube	-10.6009
getfirst	-10.601
inflate	-10.6012
Attr	-10.6012
Row	-10.6013
screenshot	-10.6017
odbc	-10.6018
BAR	-10.6019
▁cdk	-10.6021
Float	-10.6022
zuzdcto	-10.6026
expander	-10.6029
OPT	-10.6032
heading	-10.6033
unmarshal	-10.6036
▁esl	-10.6037
tokenizer	-10.6038
overwrite	-10.6043
formant	-10.6046
potential	-10.6051
semantic	-10.6051
CONTEXT	-10.6053
recoverable	-10.6053
committed	-10.6054
aster	-10.6057
heartbeat	-10.6065
pot	-10.6066
▁upload	-10.6071
Global	-10.608
fru	-10.6083
opened	-10.6085
textarea	-10.6085
ulation	-10.6086
around	-10.6088
▁yy	-10.6089
semaphore	-10.6094
Pixel	-10.6094
cas	-10.6095
Network	-10.6098
see	-10.6104
zuh	-10.6105
derivative	-10.6111
BLOCK	-10.6112
factorycreate	-10.6113
▁libvirt	-10.6114
datastore	-10.6114
forall	-10.6115
trail	-10.612
Session	-10.6123
sdl	-10.6124
ban	-10.6126
▁setauto	-10.6128
MM	-10.613
ddl	-10.6133
threadpool	-10.6135
vote	-10.6137
vorbis	-10.6138
▁utilformat	-10.614
SSL	-10.6143
▁visittype	-10.6143
▁case	-10.6145
pom	-10.6147
▁keyboard	-10.6154
movement	-10.6154
nz	-10.6156
lcr	-10.6164
▁setjs	-10.6165
protein	-10.6168
filt	-10.6169
mangle	-10.617
sourcefile	-10.6178
bubble	-10.6182
Child	-10.6182
pal	-10.6189
Simple	-10.619
bitset	-10.6191
▁peer	-10.6192
firmware	-10.6197
moniker	-10.6197
desired	-10.6197
▁spar	-10.62
▁patch	-10.62
▁amr	-10.6201
arena	-10.6203
▁mat	-10.6203
▁fold	-10.6205
mate	-10.6208
variation	-10.6208
changelistener	-10.6208
▁world	-10.6212
▁virtio	-10.6213
MAIN	-10.6215
mpeg	-10.6218
OL	-10.6218
wise	-10.6219
vext	-10.6223
Document	-10.6226
▁gdb	-10.6226
BYTE	-10.6226
returntype	-10.6228
fnanb	-10.6232
sockaddr	-10.6233
statements	-10.6236
PAGE	-10.6238
▁shape	-10.624
speech	-10.6241
▁stringvalue	-10.6245
road	-10.6251
yield	-10.6256
sgrefobject	-10.6256
xmit	-10.6256
inthe	-10.6257
▁pending	-10.6258
▁unmarshall	-10.6259
avl	-10.6259
linenumber	-10.6261
gimple	-10.6268
bol	-10.627
▁atl	-10.627
likelihood	-10.627
coppermine	-10.627
broken	-10.6271
▁backup	-10.6273
▁mn	-10.6275
fingerprint	-10.6282
▁bw	-10.6283
symbolname	-10.6283
▁smart	-10.6284
caching	-10.6286
revoke	-10.6287
▁gxg	-10.6289
ipconfig	-10.629
dbusinterfaceget	-10.6291
Link	-10.6293
▁fb	-10.6297
▁IPHTMLTIPHTML	-10.63
arrayptr	-10.6301
▁macro	-10.6302
tim	-10.6303
median	-10.6311
scp	-10.6312
sstdranget	-10.6313
lowlevel	-10.6314
SHORTSTRING	-10.6315
▁vtksm	-10.6318
▁jshtml	-10.6327
listfree	-10.6327
lap	-10.633
▁CLASSEST	-10.6335
removal	-10.6345
unwind	-10.6346
VER	-10.6347
href	-10.6348
ration	-10.635
▁nt	-10.6351
▁tracerawoutput	-10.6351
NEW	-10.6351
pairle	-10.6357
toolkit	-10.6358
xmpp	-10.6358
eight	-10.6362
ledoubleco	-10.6366
gdkpixbuf	-10.637
derive	-10.6373
▁gedit	-10.6374
▁nouveau	-10.6374
▁liferayui	-10.6375
▁sanitizer	-10.6377
▁hl	-10.6379
dig	-10.6382
met	-10.6382
trip	-10.6383
functional	-10.6387
recipe	-10.6396
eta	-10.6397
zlib	-10.6398
slab	-10.6402
convolution	-10.6404
gbxjatlskbqsrkol	-10.6404
ank	-10.6406
▁dp	-10.6408
relay	-10.6417
mobile	-10.642
Crypt	-10.6421
Dump	-10.6425
party	-10.6429
tester	-10.6429
▁gdm	-10.6432
hooks	-10.6433
urn	-10.6434
INTERNAL	-10.6435
accessibility	-10.6435
every	-10.6438
escaped	-10.6438
subscribers	-10.644
ever	-10.6446
MOVE	-10.6447
memo	-10.6447
calculation	-10.6447
thrown	-10.6448
eeprom	-10.6449
participant	-10.645
intensity	-10.645
abbrev	-10.645
ortho	-10.6454
STRINGS	-10.6463
Method	-10.6465
dpm	-10.6469
▁alsa	-10.6472
hull	-10.6479
outside	-10.648
System	-10.648
division	-10.6482
sigma	-10.6484
fea	-10.6497
underline	-10.6498
lessthan	-10.6501
OF	-10.6501
clr	-10.6502
finally	-10.6505
Help	-10.6506
▁nmsetting	-10.6509
▁kcopfn	-10.651
cone	-10.6512
searchresult	-10.6514
▁gwtmpgtk	-10.6516
wsdl	-10.6517
prov	-10.652
statechange	-10.6521
inserted	-10.6532
strength	-10.654
Dec	-10.6541
emulate	-10.6541
▁pgrblocks	-10.6542
defaultinit	-10.6543
law	-10.6545
dynexpesats	-10.6548
▁encoder	-10.6548
callable	-10.6553
▁rast	-10.6555
cannot	-10.6562
▁light	-10.6562
fieldtype	-10.6569
▁styledtextctrl	-10.6571
proposal	-10.6571
LOG	-10.6572
arrayviewimpl	-10.6572
Pointer	-10.6574
fly	-10.6574
▁gfastfunc	-10.6585
scatter	-10.6586
paginationfindby	-10.6586
activatecb	-10.6589
▁installv	-10.6591
En	-10.6593
▁linear	-10.6595
ibm	-10.66
SELECT	-10.6601
bessel	-10.6601
samplerate	-10.6606
networkexception	-10.6612
correction	-10.6613
cleanupresources	-10.6617
▁ctype	-10.6628
apple	-10.663
Sequence	-10.6632
listmodel	-10.6636
▁pd	-10.6639
prolog	-10.6644
logout	-10.6648
alsa	-10.6648
monster	-10.6648
CODETOOLS	-10.6651
shortcuts	-10.6652
injected	-10.6656
staexpesats	-10.6659
pangofont	-10.666
filedialog	-10.6662
FRAME	-10.6663
rosegarden	-10.6663
▁SYSUTILS	-10.6663
vectorle	-10.6681
guide	-10.6682
lte	-10.6686
bra	-10.6687
threaded	-10.6689
profiler	-10.6691
BOOLEANBOOLEAN	-10.6692
nit	-10.6693
hyp	-10.6694
probability	-10.6695
handlers	-10.6699
▁upd	-10.67
▁needs	-10.6704
jdn	-10.6708
ern	-10.6711
isequal	-10.6716
prior	-10.6716
usages	-10.6718
baseinit	-10.6722
saveas	-10.6723
CONVERT	-10.6725
talk	-10.6725
psp	-10.6726
eye	-10.6726
ency	-10.6728
▁utils	-10.673
installer	-10.6733
UL	-10.6736
mixed	-10.6737
reconnect	-10.6737
FF	-10.6739
concurrency	-10.6741
Vector	-10.6741
foot	-10.6745
clo	-10.6745
▁camlF	-10.6757
verification	-10.6757
propertyname	-10.6766
provision	-10.6773
searchprovider	-10.6774
▁domwindow	-10.6775
ike	-10.6776
convertto	-10.6778
trailing	-10.6779
BE	-10.6784
navigator	-10.6787
▁seahorse	-10.6787
HIGHLIGHTER	-10.6795
▁evd	-10.6795
▁pxp	-10.6801
equ	-10.6805
zuzdczlz	-10.6811
attributesetter	-10.6812
RECT	-10.6818
networkziwaizi	-10.6818
Column	-10.6818
Integer	-10.6818
▁UPSR	-10.6821
requirement	-10.6821
hostmsg	-10.6821
▁aoraicil	-10.6822
etdata	-10.6825
rkns	-10.6828
syslog	-10.683
paned	-10.6833
hashmap	-10.6837
lie	-10.6839
trusted	-10.684
sessionmanager	-10.684
sure	-10.6841
Icon	-10.6841
Model	-10.6843
▁gmx	-10.6846
sprintf	-10.6846
markers	-10.6846
▁constellation	-10.6849
frozen	-10.6849
mnemonic	-10.6849
databasezi	-10.6853
ieee	-10.6856
fresh	-10.6863
Current	-10.6865
toutf	-10.6874
cannotbe	-10.6877
PP	-10.6879
alternate	-10.6881
arbitrary	-10.6881
▁curses	-10.6881
OPEN	-10.6882
hub	-10.6883
▁wrapgdk	-10.6883
trff	-10.6884
▁per	-10.6884
errorcode	-10.6889
nullable	-10.6891
▁onaction	-10.6895
Channel	-10.6896
bsd	-10.6897
third	-10.6898
uh	-10.6911
availability	-10.6913
aig	-10.6914
GA	-10.692
compressor	-10.6921
pri	-10.6922
scores	-10.6923
lookuptable	-10.6927
▁scintilla	-10.6928
tmvaclcl	-10.6928
glsl	-10.6928
Trace	-10.6928
columnnamecolumn	-10.693
▁gpa	-10.6933
ceil	-10.6935
hyperlink	-10.6935
▁tw	-10.6937
izable	-10.6943
sizeallocate	-10.6944
ELEMENT	-10.6944
continuation	-10.6945
undefined	-10.695
epoch	-10.695
▁word	-10.6953
below	-10.6954
▁sx	-10.6959
pts	-10.696
Play	-10.6962
▁sidl	-10.6965
warnings	-10.6966
ocamllex	-10.6966
One	-10.6967
▁symbol	-10.6968
Vertex	-10.697
SELECTION	-10.6975
TWINCONTROL	-10.6976
course	-10.698
authority	-10.698
getinitial	-10.698
Fill	-10.6989
Max	-10.6989
Meta	-10.699
CO	-10.699
▁lterrct	-10.699
recurse	-10.6991
subsystem	-10.6991
FE	-10.6992
▁feedzu	-10.6993
FORMAT	-10.6999
tuner	-10.6999
gnutls	-10.7002
Rec	-10.7003
iii	-10.7003
obbyd	-10.7007
▁ario	-10.7008
▁orte	-10.7012
▁camel	-10.7014
optimizer	-10.7015
SAVE	-10.7015
▁globalsubiznk	-10.7016
timestep	-10.7016
branches	-10.7017
dgylwkvhsctextzi	-10.7023
Memory	-10.7023
imagedata	-10.7037
TIME	-10.7038
mbean	-10.7038
crtc	-10.7039
weapon	-10.7039
tempo	-10.7047
Date	-10.7051
tetra	-10.7052
cull	-10.7052
carrier	-10.7055
▁shredded	-10.7055
▁cant	-10.706
story	-10.7061
▁sms	-10.7066
EP	-10.707
parameteriv	-10.7071
▁homescope	-10.7073
Notify	-10.7073
recalc	-10.7073
CP	-10.7074
awt	-10.7076
toolbutton	-10.7076
binop	-10.7081
internalgtkosgdk	-10.7083
exclusive	-10.7087
coerce	-10.7088
Widget	-10.7093
SERIES	-10.7103
▁commicrosoft	-10.7104
libraries	-10.7104
TABLE	-10.7104
reuse	-10.7105
DEBUG	-10.7105
invoice	-10.7113
dither	-10.7117
nick	-10.7117
cascade	-10.712
explain	-10.712
SUB	-10.7123
glib	-10.7129
Folder	-10.713
▁xmms	-10.713
POINT	-10.7133
synchronous	-10.7136
esqueleto	-10.7136
orphan	-10.7136
intrinsic	-10.7136
fch	-10.7144
Attribute	-10.7146
znativeinternal	-10.7152
business	-10.7153
Extra	-10.7158
fontface	-10.7163
▁vtkimage	-10.7166
FROM	-10.7168
technique	-10.7168
vglobalr	-10.7168
interactor	-10.7171
LONGINTT	-10.7175
▁nhl	-10.7176
expiration	-10.7184
ganss	-10.7186
▁avi	-10.7186
▁cpp	-10.7188
ffi	-10.7191
methodname	-10.7191
quantize	-10.7193
FILES	-10.7194
invite	-10.7194
kick	-10.7196
experiment	-10.7201
Verify	-10.7202
FOLD	-10.7209
bq	-10.7218
tenant	-10.722
▁ipa	-10.7228
included	-10.7236
RES	-10.7238
▁execz	-10.7241
forced	-10.7245
refactoring	-10.725
chararray	-10.7257
flux	-10.726
PRE	-10.7262
parameterfv	-10.7263
internet	-10.7264
substitution	-10.7266
krb	-10.7266
suggestion	-10.727
renderbuffer	-10.7271
avc	-10.7272
DP	-10.7272
bytestring	-10.7276
usergroup	-10.7276
analog	-10.7279
ERROR	-10.7282
lhs	-10.7283
TSTREAM	-10.7286
grbasicblock	-10.7298
away	-10.7299
▁thiscallbasic	-10.73
PROPERTYEDITOR	-10.73
grouping	-10.7303
deallocate	-10.7303
▁rrct	-10.7306
▁gnumeric	-10.7306
kdtree	-10.7309
keystore	-10.731
▁neonv	-10.7319
endian	-10.7323
▁gettotal	-10.7326
GEAR	-10.7326
▁pattern	-10.7328
far	-10.7329
▁logz	-10.7329
just	-10.733
advise	-10.7335
syscallpostimpl	-10.7348
banner	-10.7349
bignum	-10.7353
▁aim	-10.7355
there	-10.7362
▁doqemuinit	-10.7364
syscallpreimpl	-10.7364
enumeration	-10.7364
topgrblock	-10.7365
▁GRAPHICST	-10.7365
▁apol	-10.7367
erns	-10.737
cancelled	-10.7372
TCHART	-10.7373
Col	-10.7374
gravity	-10.7381
harrayof	-10.7392
Sort	-10.7397
semigroupzdf	-10.7399
radial	-10.7409
ium	-10.7411
sanitize	-10.7411
water	-10.7412
MON	-10.7414
BUFFER	-10.7414
signalhandler	-10.7418
bcxxe	-10.7419
stderr	-10.7424
construction	-10.7426
strong	-10.743
Record	-10.7431
sticky	-10.7433
▁donkey	-10.7434
▁iwl	-10.7438
jpa	-10.7439
gpg	-10.7441
pcc	-10.7444
▁mini	-10.7445
xnb	-10.7445
proper	-10.7446
Module	-10.7447
accumulate	-10.7448
▁camlPxp	-10.7449
▁onmenu	-10.7451
shards	-10.7452
WRITER	-10.7453
mtu	-10.7455
unwrap	-10.7464
ARE	-10.7465
spy	-10.7465
Ver	-10.7471
statistic	-10.7478
tagname	-10.7485
isremote	-10.7486
MENUITEM	-10.7493
preedit	-10.7493
▁gtksource	-10.7495
▁COMCTRLST	-10.7497
▁einfo	-10.7501
▁edge	-10.7507
cacheentry	-10.7508
maven	-10.7513
elapsed	-10.7514
▁logszi	-10.7516
▁mcurrent	-10.7518
utility	-10.7523
swiginit	-10.7533
uart	-10.7535
lev	-10.7536
▁qwtplot	-10.7537
assemble	-10.7538
▁complete	-10.7541
customize	-10.7543
Video	-10.7549
android	-10.755
Gtk	-10.755
INSERT	-10.755
▁vik	-10.7558
realtime	-10.756
Segment	-10.7565
cei	-10.7565
inputsignature	-10.7567
Or	-10.7573
▁qlcnic	-10.7581
ult	-10.7586
dbusinterface	-10.759
▁af	-10.7592
monitoring	-10.7594
outputsignature	-10.7596
Surface	-10.7598
continuous	-10.7598
activator	-10.7615
▁xlsx	-10.7618
overload	-10.7624
▁csound	-10.7624
Sign	-10.7627
Stop	-10.7627
blocksize	-10.7636
codegen	-10.764
circular	-10.7649
Word	-10.765
equalizer	-10.7657
Opt	-10.7663
argb	-10.7665
hyperoctree	-10.7666
httpclient	-10.7668
obtain	-10.7669
Track	-10.7671
reap	-10.7675
nonblocking	-10.7679
tobasicblock	-10.7683
▁part	-10.7686
maker	-10.7686
repaint	-10.769
bspline	-10.7695
associate	-10.7695
crit	-10.7697
Del	-10.7701
tee	-10.7704
▁iorsidlxrmi	-10.7707
activities	-10.7717
▁imagick	-10.7717
▁qtwrapperq	-10.7718
correlation	-10.772
checktopology	-10.7724
rendertarget	-10.7729
symmetric	-10.773
▁unityhomescope	-10.7734
tron	-10.7735
ifnot	-10.7735
▁reiser	-10.7736
rou	-10.7737
uninstall	-10.7743
acpi	-10.7745
▁flac	-10.7746
realvisit	-10.7748
DESIGNER	-10.7751
▁brcmf	-10.7752
mpledelay	-10.7752
▁chirp	-10.7752
alphabet	-10.7755
issetmax	-10.7757
pod	-10.7768
initiate	-10.7771
qpbm	-10.7772
doctype	-10.7783
blockalias	-10.7783
localized	-10.7788
Auth	-10.779
OC	-10.7798
retain	-10.7799
predefined	-10.78
CREATETCOMPONENT	-10.7805
epqobject	-10.7807
Fix	-10.781
▁gitzi	-10.7811
Win	-10.7817
igp	-10.7819
DOM	-10.782
▁gcry	-10.782
COMPILEROPTIONS	-10.7821
proxysetproperty	-10.7822
▁nvkm	-10.7826
buttonpressevent	-10.7835
accelerator	-10.7838
silent	-10.784
▁httpzu	-10.7841
kk	-10.7842
beam	-10.7854
COMPARE	-10.786
tojson	-10.7861
▁rtw	-10.7872
decorator	-10.7873
appearance	-10.7874
CTRL	-10.788
DELETE	-10.7884
gtktextbuffer	-10.7885
unbind	-10.7888
declaresa	-10.7889
spellcheck	-10.7893
preload	-10.7893
ayaz	-10.7894
seat	-10.7897
passwd	-10.7898
preprocessor	-10.7903
▁avr	-10.7904
setdebug	-10.7906
engraver	-10.7907
WIDESTRING	-10.7907
Expr	-10.791
parms	-10.7914
▁swigpybuiltinc	-10.7916
clipping	-10.792
RESULT	-10.7925
pty	-10.7926
decay	-10.7926
promote	-10.7926
simulate	-10.7931
Buf	-10.7941
mmu	-10.7942
METHOD	-10.7942
xmlparser	-10.7942
fcn	-10.7943
Option	-10.7943
▁sqlselect	-10.7944
infer	-10.7956
managercall	-10.7959
stdnetcurl	-10.7963
aac	-10.7967
occur	-10.7971
eep	-10.7971
NEXT	-10.7974
explorer	-10.7981
nonzero	-10.7982
Util	-10.7988
shouldhave	-10.7994
▁SOURCEEDITORT	-10.7996
drain	-10.7999
timeoutexception	-10.8003
production	-10.8005
togglebutton	-10.8006
▁cdw	-10.8006
lsa	-10.8012
hours	-10.8024
histo	-10.8024
fluid	-10.8026
hud	-10.8028
Put	-10.8031
getvtable	-10.8032
Part	-10.8035
jndi	-10.8043
acquisition	-10.8048
▁newq	-10.8058
keyframe	-10.8059
SCROLL	-10.8065
ITEMS	-10.8069
bloom	-10.8072
successor	-10.8073
▁DBT	-10.8081
monad	-10.8097
mng	-10.8098
▁scamper	-10.8101
adapt	-10.8101
eol	-10.8102
SOURCEEDITOR	-10.8103
datum	-10.8109
review	-10.8113
NAMEANSISTRING	-10.8113
▁mpd	-10.8117
▁gll	-10.8118
deck	-10.8118
clustering	-10.8118
Spec	-10.8121
lease	-10.8121
▁gcppsetup	-10.8136
tweet	-10.8137
quantity	-10.814
CONNECTION	-10.8155
rectilineargrid	-10.8156
upstream	-10.816
confirmation	-10.8164
demangle	-10.8169
▁sar	-10.8176
assist	-10.8182
findfirst	-10.8182
▁uentry	-10.8182
qsort	-10.8182
still	-10.8184
Storage	-10.819
GE	-10.8191
hashcode	-10.8191
checkout	-10.8192
▁xfce	-10.8194
▁webappsgen	-10.8195
ompfn	-10.8197
▁camlUtil	-10.8198
Main	-10.8199
lacqjecpdimbyrkr	-10.8208
volumeraycast	-10.8209
sense	-10.821
distributed	-10.8214
gdi	-10.822
duct	-10.8221
Pair	-10.8225
▁GTKINTTGTK	-10.8226
circuit	-10.8226
avi	-10.8229
trig	-10.8233
minimize	-10.8238
restricted	-10.824
Min	-10.8242
deque	-10.8243
xform	-10.8243
accum	-10.8251
▁jlcall	-10.8256
▁selectfrom	-10.826
ubyte	-10.826
maximize	-10.8264
intro	-10.8265
ful	-10.8267
▁tastyzu	-10.828
draft	-10.8283
webservice	-10.8284
zzy	-10.8286
▁sst	-10.8287
RGB	-10.8294
▁remotesidlrmi	-10.8298
descendant	-10.8298
STYLE	-10.8298
spread	-10.8303
▁connman	-10.8305
cfaud	-10.8308
▁xbt	-10.8308
allele	-10.8315
▁dstdranget	-10.8317
▁conduzu	-10.8317
processes	-10.832
Manager	-10.8322
OW	-10.8324
gsm	-10.8326
ramp	-10.833
eowm	-10.8334
businessobject	-10.8334
syvraanetworkzih	-10.8335
ucq	-10.8341
onsignal	-10.8341
correlate	-10.8346
rggnuglpkglpkjni	-10.8346
xoption	-10.8346
produce	-10.8349
deflate	-10.8352
equivalent	-10.8353
▁quicktime	-10.8354
displacement	-10.8356
hashtbl	-10.8361
torgb	-10.8364
moment	-10.8365
reporter	-10.837
▁XSOpenGLgl	-10.8371
puzzle	-10.8371
dataziconduitzi	-10.8371
during	-10.8371
sect	-10.8371
early	-10.8374
▁gra	-10.8388
unlocked	-10.8389
nosuch	-10.839
▁countby	-10.8391
hevc	-10.8392
donot	-10.8393
frc	-10.8395
pfzz	-10.8396
bidi	-10.8398
VertexAttrib	-10.8398
eygv	-10.8403
▁parsezu	-10.8404
applied	-10.8408
either	-10.8409
ICON	-10.8409
nonnull	-10.8411
PAS	-10.8418
stacktrace	-10.8419
rbnr	-10.842
symbolic	-10.8423
▁jc	-10.8424
▁dataview	-10.8424
robot	-10.8428
quart	-10.8441
POSITION	-10.8445
▁pkbucketsetlm	-10.8445
▁pminusmmmultqq	-10.8445
classify	-10.8446
zdfenum	-10.8454
▁dri	-10.8455
Post	-10.8458
▁ogmrip	-10.8463
mustnotbenull	-10.8463
malformed	-10.8463
weakref	-10.8463
longgr	-10.8464
psk	-10.8466
inputdevice	-10.8466
nettle	-10.847
▁smb	-10.8474
cnf	-10.8476
▁camlShredded	-10.8477
streambuf	-10.848
exponent	-10.8481
beacon	-10.8483
aiy	-10.8491
Clip	-10.8495
glxj	-10.8497
tvoption	-10.8499
▁vil	-10.851
loglevel	-10.8513
staff	-10.8516
GH	-10.8516
borderbottom	-10.8517
checking	-10.8518
computer	-10.8525
TPRO	-10.8527
Changed	-10.8529
fnanbne	-10.853
ASSIGN	-10.8537
challenge	-10.8537
▁esquezuhd	-10.8537
otqcs	-10.8539
javautil	-10.854
Cut	-10.8545
mvgs	-10.8555
REG	-10.8556
multiline	-10.8559
negate	-10.8565
accepted	-10.8568
resolv	-10.857
pbcu	-10.8571
consistent	-10.8574
hxpl	-10.8575
▁jv	-10.8578
▁webapps	-10.8586
Msg	-10.8586
inherited	-10.8588
Term	-10.8593
▁orggnomegdkgdk	-10.8593
calibration	-10.8593
convolve	-10.8593
Target	-10.8596
dct	-10.8606
Attributes	-10.861
▁spark	-10.8614
notifyevent	-10.8616
geary	-10.8627
BOX	-10.8628
packagename	-10.8632
fasta	-10.8636
keybinding	-10.8642
▁ali	-10.8644
TREEVIEW	-10.865
Compile	-10.8651
doesnotexist	-10.8656
backtrace	-10.8671
door	-10.8676
bench	-10.8683
▁zfs	-10.8686
establish	-10.8687
NO	-10.8688
scrolledwindow	-10.8688
sstddatetime	-10.8689
blink	-10.8692
well	-10.8693
▁iop	-10.8696
simd	-10.8701
entropy	-10.8706
▁attopzu	-10.8706
LISTBOX	-10.8707
ique	-10.8716
▁gcm	-10.8724
grain	-10.8724
greater	-10.8724
PRINTER	-10.8724
Sample	-10.8725
Final	-10.873
frac	-10.8734
latin	-10.8737
itm	-10.874
mainloop	-10.8742
rqst	-10.8743
TIPHTML	-10.8743
gvb	-10.8745
octet	-10.875
Arc	-10.876
directiveget	-10.8763
prepared	-10.8764
benchmark	-10.8768
ueue	-10.8775
craft	-10.8776
coefficient	-10.8781
traversal	-10.8781
▁xmltyzu	-10.8781
qty	-10.8781
dbl	-10.8792
Lookup	-10.88
Access	-10.88
▁gfortran	-10.8801
never	-10.8813
▁svn	-10.8814
pwm	-10.8816
uick	-10.8822
prefetch	-10.8828
▁pil	-10.8829
pet	-10.883
highest	-10.8831
ACT	-10.8836
personal	-10.8837
keyspace	-10.884
localhost	-10.8842
central	-10.8843
splice	-10.8844
limited	-10.8845
provided	-10.8848
DOWN	-10.8858
perspective	-10.8858
conference	-10.8858
discrete	-10.8858
BITMAP	-10.8858
Bar	-10.8858
Address	-10.8858
ringgeneral	-10.8869
Enable	-10.887
gamgi	-10.8872
moo	-10.8873
▁orgtritonus	-10.8877
zuzdszddm	-10.8877
TRA	-10.8882
TSTRINGS	-10.8885
nsec	-10.8889
legal	-10.8891
fontfamily	-10.8892
▁ensgv	-10.8899
▁remotermi	-10.891
meas	-10.8913
▁gcr	-10.8913
wipe	-10.8915
▁confget	-10.8915
RANGE	-10.8916
▁ansimap	-10.8918
Scroll	-10.8918
returnvalue	-10.892
Env	-10.8926
sph	-10.8927
unchecked	-10.8931
Seq	-10.8933
sstdunitslice	-10.8934
appear	-10.8948
roller	-10.8949
integrator	-10.8954
transformed	-10.8954
fabric	-10.8955
datazixmlzitypes	-10.8955
ABLE	-10.8956
lowercase	-10.8957
gvcom	-10.896
kmgp	-10.8962
repeated	-10.8968
precedence	-10.8973
combination	-10.8974
▁gclue	-10.8974
▁wrapgpgme	-10.8977
prism	-10.8984
PORT	-10.8985
zdfapplicative	-10.8993
rrd	-10.8998
issuer	-10.9003
supplier	-10.9012
haswell	-10.9019
RR	-10.9019
knob	-10.9025
focusout	-10.9027
tracki	-10.9028
▁winestubW	-10.903
standalone	-10.9032
Version	-10.9032
proxygsignal	-10.9032
estdencoding	-10.904
compaction	-10.9042
Scale	-10.9051
▁opc	-10.9051
corrupt	-10.9052
poke	-10.9054
mxf	-10.9058
swipe	-10.9068
▁netssleay	-10.9071
minimal	-10.9075
▁genavx	-10.9076
angular	-10.9081
fpu	-10.9085
▁dcc	-10.909
advice	-10.9093
fld	-10.9094
TrackI	-10.9094
pwd	-10.91
MENT	-10.9102
▁CONTROLS	-10.9102
defaultvalue	-10.9103
disconnected	-10.9104
colon	-10.9104
canvasitem	-10.9109
▁psppire	-10.911
CARET	-10.9112
unresolved	-10.9114
fir	-10.9114
distribute	-10.9123
optim	-10.9124
vertexarray	-10.9126
registrar	-10.913
nehalem	-10.913
compass	-10.913
sptrsetmin	-10.9131
wireless	-10.9132
terminated	-10.9137
errorquark	-10.9137
▁dmx	-10.9139
▁trg	-10.9141
lpc	-10.9141
ocsp	-10.9144
scrolling	-10.9147
webgl	-10.9153
invoker	-10.9153
decompose	-10.9155
BIT	-10.9157
beat	-10.9164
park	-10.9165
▁nbkernelelec	-10.9169
narrow	-10.9172
jmx	-10.9172
fju	-10.918
instanceof	-10.9187
figuratorszi	-10.9189
Active	-10.9189
keypair	-10.9191
Area	-10.9193
internalgtkosg	-10.9196
concrete	-10.9209
▁lasso	-10.9214
wild	-10.9214
dequeue	-10.9227
LOCAL	-10.9229
develop	-10.923
ENTRY	-10.9235
ama	-10.9236
▁qsig	-10.9238
▁ceph	-10.9241
hfh	-10.9247
isactive	-10.9247
▁volkf	-10.9249
voltage	-10.9249
qnj	-10.9255
▁unityinternal	-10.9259
Result	-10.9269
extern	-10.927
constrained	-10.9271
Profile	-10.9274
sendpacket	-10.9276
circ	-10.9281
invoked	-10.9281
replicate	-10.9286
SCANNER	-10.9289
▁rbncurs	-10.9289
ddmformfield	-10.9289
injector	-10.9292
speaker	-10.9292
gick	-10.9294
nothing	-10.9295
saving	-10.9296
calib	-10.9297
transcript	-10.9298
regression	-10.9301
gzip	-10.9302
zq	-10.9306
▁WRPR	-10.9309
STORAGE	-10.9309
▁DBGINTF	-10.9309
traffic	-10.9309
odd	-10.9316
waveform	-10.9317
nkol	-10.9319
hotkey	-10.9326
because	-10.9326
unsignedlong	-10.933
invariant	-10.9339
tmpvar	-10.9341
projected	-10.9347
jmp	-10.9348
aria	-10.9349
hgmmh	-10.9349
similarity	-10.935
ihsb	-10.9353
dicom	-10.9357
annex	-10.9358
▁adios	-10.9359
give	-10.9361
tempfile	-10.9369
coordinator	-10.9369
stziquickcheckzi	-10.9369
▁nilfs	-10.937
roblemdescriptor	-10.9373
vdf	-10.9374
CHM	-10.9376
mouseevent	-10.9377
HTTP	-10.9377
Real	-10.9385
transferfunction	-10.9386
unescape	-10.9387
COUNTLONGINT	-10.9388
IDENTIFIER	-10.9389
sandybridge	-10.9389
konclude	-10.9389
▁webglrender	-10.9392
Scan	-10.9392
assembler	-10.9395
Down	-10.9396
dpi	-10.9398
thunk	-10.9404
rtx	-10.9405
dfconstantsh	-10.941
sptrsetp	-10.9413
subscriber	-10.9414
▁camlNetsys	-10.9419
xmlreader	-10.9423
market	-10.9423
termination	-10.9431
atazihourglasszi	-10.944
authorized	-10.944
clickedcb	-10.9443
serversocket	-10.9443
GN	-10.9443
fromperl	-10.9444
evict	-10.9445
gpgme	-10.945
▁remotesidl	-10.945
▁duk	-10.9454
sptrsetmax	-10.9457
classification	-10.9457
cov	-10.9459
treeviewcolumn	-10.9463
convention	-10.9471
implzbydchar	-10.9473
▁webrtc	-10.9474
iternext	-10.9477
cff	-10.9491
▁annexzi	-10.9492
visited	-10.9492
fish	-10.9496
Direct	-10.9499
mnt	-10.9505
threadlocal	-10.9509
Response	-10.9511
gssapi	-10.9513
IDENT	-10.952
randomize	-10.9521
vision	-10.9522
▁HT	-10.9523
divider	-10.9524
athlon	-10.9527
deg	-10.9531
Length	-10.9532
Protocol	-10.9532
▁warpzu	-10.9532
fnanf	-10.9536
mcdy	-10.954
ROW	-10.9549
Bitmap	-10.9549
yazappender	-10.955
iterationtmap	-10.9552
EXECUTE	-10.9552
Moniker	-10.9553
kafka	-10.9553
instantiation	-10.9553
enclosing	-10.957
CANVAS	-10.957
ECTINSPECTOR	-10.9573
WITH	-10.9573
ziattoparseczi	-10.9573
synchronization	-10.9573
▁dstdencodingt	-10.9573
bqke	-10.9574
orbital	-10.9575
aspectratio	-10.9575
CODETOOL	-10.9576
sourcecompletion	-10.9588
getclassinfo	-10.9593
fct	-10.9596
TDATASET	-10.9599
determine	-10.9606
managerskeleton	-10.9608
dismiss	-10.9609
klgd	-10.9613
skew	-10.9615
screensaver	-10.9615
kern	-10.9619
▁bfd	-10.962
life	-10.9626
gux	-10.9634
accuracy	-10.9635
consistency	-10.9635
posixtimezone	-10.9636
eject	-10.9641
ND	-10.9644
bpm	-10.9653
slicebitsztrie	-10.9656
Width	-10.9656
▁winedd	-10.9657
calibrate	-10.9659
▁orgapache	-10.966
COMPLETION	-10.9663
affected	-10.9668
▁dleyna	-10.9674
fusion	-10.9675
▁redis	-10.9676
statusicon	-10.9676
bulldozer	-10.9677
punct	-10.9677
MULTI	-10.9677
TEST	-10.9678
enemy	-10.9679
outbound	-10.9686
dropdown	-10.9696
magnitude	-10.9697
orghibernatetest	-10.9697
prescott	-10.9697
rdp	-10.9705
previewplayer	-10.9705
DATE	-10.9709
axa	-10.9712
MEM	-10.9717
chroma	-10.9718
balloon	-10.9718
reservation	-10.9718
lattice	-10.9718
▁xzuw	-10.9719
▁pgfinfo	-10.9719
▁goocanvas	-10.9719
DIR	-10.972
▁rh	-10.9721
pojo	-10.9721
CONST	-10.9726
SRC	-10.9727
▁mediaexport	-10.973
barcel	-10.9731
ipaddr	-10.9736
penryn	-10.974
Timer	-10.974
pivot	-10.9743
unexpectedclose	-10.9744
logged	-10.9748
mir	-10.9751
backlight	-10.9754
proxygettype	-10.9755
▁orgopencv	-10.976
dunnington	-10.976
excavator	-10.976
northwood	-10.976
Eval	-10.9767
abl	-10.9768
stash	-10.9774
obcat	-10.978
rrvni	-10.978
EXPRESSION	-10.9781
katmai	-10.9781
aboutdialog	-10.9784
ziprimitive	-10.9791
iledriver	-10.9793
jtag	-10.9794
tiny	-10.9794
▁jsdomwindow	-10.9796
unittests	-10.9798
vcf	-10.98
qmetaobject	-10.9802
qtstaticmetacall	-10.9802
kivkizslicebitst	-10.9802
mivmizslicebitst	-10.9802
squared	-10.9804
POINTERPOINTER	-10.9804
sndcsndjnicsound	-10.9806
superclass	-10.9809
▁staticq	-10.9811
meat	-10.9818
Settings	-10.9826
lead	-10.9827
prediction	-10.9829
▁spl	-10.9834
emitter	-10.9836
▁qapifree	-10.9845
▁mwifiex	-10.9845
eippv	-10.9845
Space	-10.9845
bania	-10.9852
▁getorcreate	-10.9854
transl	-10.986
rgmqxdjibuvbbppf	-10.9866
START	-10.9866
vectordle	-10.9867
atan	-10.9867
▁stk	-10.9868
bnd	-10.9868
rejected	-10.987
ptrderef	-10.9875
Sec	-10.9877
zuzdczg	-10.988
edatsdynload	-10.9887
▁GDBMIDEBUGGER	-10.9887
▁nmcproperty	-10.9887
Stack	-10.9887
lexerocamllex	-10.9889
▁gnm	-10.9898
TMODALRESULT	-10.9908
▁qinitresources	-10.9908
garbage	-10.9908
deregister	-10.9911
coco	-10.9918
Calc	-10.9918
www	-10.9918
fractional	-10.992
ukbfmbpudatazixz	-10.9929
voxel	-10.993
GEN	-10.9933
▁ddx	-10.9933
Over	-10.9933
had	-10.994
presenter	-10.9941
formatting	-10.9943
quot	-10.9944
conjugate	-10.9951
Double	-10.9951
▁gtpchp	-10.9951
compatibility	-10.9951
passthrough	-10.9955
▁ecore	-10.9961
criterion	-10.9972
pectazformatspec	-10.9972
indication	-10.9972
▁sparsearrayi	-10.9975
▁epoxyglGet	-10.9977
scanline	-10.9984
HASH	-10.9986
keyring	-10.9989
pressure	-10.9989
octagonalshape	-10.9994
doubleclick	-10.9994
vocabulary	-10.9994
surround	-10.9994
FR	-11.0002
basicstringwchar	-11.0003
▁FS	-11.0004
wasnot	-11.0005
owned	-11.0007
loopback	-11.0009
Ole	-11.0012
▁dxf	-11.0015
sstdunigcpolicyz	-11.0015
optimized	-11.0016
itch	-11.0016
CAP	-11.0017
ifnecessary	-11.0018
Decoder	-11.0021
trivial	-11.0027
raid	-11.0029
atleast	-11.003
▁wrapdelete	-11.0036
cartesian	-11.0037
weather	-11.0037
acknowledge	-11.0038
strlen	-11.0039
Sync	-11.0039
introspect	-11.004
mdi	-11.0042
consider	-11.0042
bonus	-11.0042
whitelist	-11.0043
death	-11.0048
ava	-11.0052
spill	-11.0052
basicstringchar	-11.0053
zuzdcgmapq	-11.0058
quaternion	-11.0058
CURSOR	-11.0058
▁bro	-11.007
▁aorailogic	-11.008
zilazzy	-11.008
prio	-11.0082
citation	-11.0083
▁rj	-11.0092
compositedata	-11.0099
observable	-11.0102
thickness	-11.0102
qqzzt	-11.0102
pangoattr	-11.0103
bpf	-11.0104
protection	-11.0108
▁sftk	-11.0111
PARAMS	-11.0118
▁xsmath	-11.0119
dsd	-11.012
▁einfoset	-11.0121
mad	-11.0121
▁IDirectDRM	-11.0123
▁contazu	-11.0123
MASK	-11.0124
sendmessage	-11.0125
iri	-11.0125
▁stg	-11.013
memalloc	-11.0136
sgix	-11.0136
printoperation	-11.0142
▁tolua	-11.0154
pem	-11.0159
qtu	-11.016
▁xssearch	-11.0162
LINES	-11.0165
rescale	-11.0168
ppprint	-11.0174
nominal	-11.0189
elevation	-11.019
THREAD	-11.02
Task	-11.0208
COMBOBOX	-11.0211
scenario	-11.0211
copies	-11.0212
Slot	-11.0213
webapp	-11.0213
▁datafield	-11.0218
▁camlNethttp	-11.022
optimal	-11.0221
Site	-11.023
preamble	-11.0233
rygelmediaexport	-11.0233
▁indirectgl	-11.0234
equiv	-11.0235
gles	-11.0243
fromswhere	-11.0243
lyrics	-11.0244
networkzip	-11.0246
wimax	-11.0247
Directory	-11.0255
▁vesicallsystem	-11.0256
lru	-11.026
collapsed	-11.0267
affinity	-11.0269
sparsematrix	-11.0274
▁pdp	-11.0276
arithmetic	-11.0277
exposure	-11.0277
▁gdkwindow	-11.028
▁unitywebappsgen	-11.028
enhanced	-11.0281
Game	-11.0281
▁avxf	-11.0283
nonempty	-11.0285
▁XSLasso	-11.0299
fuzzy	-11.03
Debug	-11.0303
intention	-11.031
▁nrrd	-11.031
dropped	-11.0311
pairleconstsp	-11.0317
recursively	-11.0318
UNICODE	-11.0321
pysamcsamtools	-11.0321
sptrsample	-11.0325
▁edje	-11.033
ppm	-11.0333
wacom	-11.0336
why	-11.0336
ura	-11.0337
Editor	-11.0342
scheduling	-11.0344
yaxis	-11.0358
pgsql	-11.0361
teardown	-11.0369
testsuite	-11.0373
knot	-11.0376
unify	-11.0377
▁igb	-11.0378
pcre	-11.038
ccsd	-11.0382
HINT	-11.0387
trampoline	-11.0388
SECTION	-11.0388
Sys	-11.0397
inatesystemtaggr	-11.0405
xpm	-11.0406
ffmpeg	-11.0406
bytebuffer	-11.0406
hashes	-11.0408
TRANS	-11.041
▁vesicallSystem	-11.0411
▁genavxf	-11.0417
sharing	-11.0421
bump	-11.0426
scalefactor	-11.0435
SMALLINT	-11.0437
strcmp	-11.0439
REC	-11.0439
glut	-11.0442
▁brw	-11.0442
DEBUGGERBASET	-11.0445
▁mpir	-11.0447
plaintext	-11.0448
textzuf	-11.0458
▁setjsdomwindow	-11.0461
▁fmpz	-11.0462
cmpl	-11.0465
▁rfb	-11.0466
▁frt	-11.0466
deinterleave	-11.0473
INTERFACE	-11.0478
communicator	-11.0478
bpaqnedatazitext	-11.0478
Audio	-11.0478
hadoop	-11.0478
strike	-11.048
fprintf	-11.0499
▁httpczuqwrnr	-11.05
DIRECTORY	-11.05
▁winestubR	-11.0501
methodsmod	-11.0502
GEARPTRGEARPTR	-11.0506
stale	-11.0512
convex	-11.0517
coef	-11.0519
directiveput	-11.052
▁Tcl	-11.0521
encoderinstance	-11.0522
Container	-11.0523
Region	-11.0529
▁globalsubiznsc	-11.0535
nickname	-11.0536
please	-11.0541
▁nethttp	-11.0543
CLOSE	-11.0546
▁mousepad	-11.0551
▁bcm	-11.0563
typeconsttuplet	-11.0568
characteristic	-11.0568
materialize	-11.0571
halt	-11.0572
github	-11.0576
bypass	-11.0577
▁mediaplayer	-11.0587
boss	-11.0588
unavailable	-11.0591
recommend	-11.0592
ladspa	-11.0592
Driver	-11.0594
stvectori	-11.0602
hsp	-11.0604
mousemove	-11.0609
creating	-11.0615
alive	-11.0616
yaml	-11.0624
Fast	-11.0626
Tri	-11.0631
TAG	-11.0633
▁xmlcozud	-11.0637
cepqwidget	-11.0637
wavelet	-11.0637
buttontoggled	-11.0638
Flags	-11.0638
redefined	-11.0644
bitwise	-11.0644
truth	-11.0644
factories	-11.0647
postfix	-11.0658
cwd	-11.0658
redundant	-11.066
cardinality	-11.066
ksstdformatt	-11.066
cpupowerpc	-11.066
bullet	-11.066
Unit	-11.0668
contrast	-11.0683
mek	-11.0685
▁eina	-11.069
FPS	-11.0702
webappzicon	-11.0706
GUTTER	-11.0706
LOGGER	-11.0706
synthetic	-11.0706
FUNC	-11.0706
shouldnotbe	-11.0707
normalizer	-11.071
▁bnx	-11.0718
equip	-11.0721
GRAPHIC	-11.0723
mediastream	-11.0724
junction	-11.0725
waitingfor	-11.0726
policies	-11.0729
overlapping	-11.0733
xdg	-11.0742
viewholder	-11.0745
folding	-11.0748
▁gbuiltin	-11.0749
Mgr	-11.0752
PALETTE	-11.0752
intermediate	-11.0752
BREAKPOINT	-11.0752
Factory	-11.0752
▁XSPDL	-11.0753
dledoubletgr	-11.0756
Poly	-11.0758
bgcolor	-11.076
mmxext	-11.077
Policy	-11.0775
navigate	-11.0775
doesnt	-11.0783
finger	-11.0785
OUT	-11.0785
xlatingfirfilter	-11.0793
addition	-11.0794
observe	-11.0795
textziregexzi	-11.0798
CHILD	-11.0799
oxxrdrxnammhckgr	-11.0799
wlan	-11.0802
ziinternalzdf	-11.0808
Transform	-11.0811
SCRIPT	-11.0819
CURRENT	-11.0822
kkz	-11.0823
panner	-11.0842
historic	-11.0848
tayaz	-11.0855
▁ajseq	-11.0865
LFM	-11.0869
USER	-11.0871
▁gpk	-11.0878
rgpol	-11.089
▁bgp	-11.0891
clpbdtwtextzixml	-11.0892
▁ewmh	-11.0892
Flush	-11.0892
inferior	-11.0893
unfold	-11.0894
▁applyinherit	-11.0896
PARAM	-11.0898
SORT	-11.09
COL	-11.09
czzi	-11.0903
bmidxktviudatazi	-11.0916
Complex	-11.0919
disjoint	-11.0923
PART	-11.0923
thaw	-11.0925
▁apc	-11.0925
hsv	-11.0927
skipped	-11.0936
TEMPLATE	-11.0938
PAINT	-11.0938
satisfiable	-11.0939
notimplemented	-11.094
▁gdmdbus	-11.0942
▁armci	-11.0947
laser	-11.0955
gtkfilechooser	-11.0961
▁camlAg	-11.0961
temperature	-11.0963
residual	-11.0963
ascending	-11.0964
Null	-11.0977
proximity	-11.0987
Content	-11.0987
▁GTKPROC	-11.0987
Desc	-11.0987
▁COMCTRLSTCUSTOM	-11.0988
emailaddress	-11.0991
mainthread	-11.0991
typeszdfshow	-11.0992
▁nullglGet	-11.0992
Cap	-11.0993
▁ttf	-11.0994
▁hdrl	-11.1003
▁sdap	-11.1003
▁saa	-11.1005
unreachable	-11.1009
ALIGN	-11.101
employee	-11.101
messaging	-11.101
profiling	-11.101
Edge	-11.1012
dumpstats	-11.1013
instant	-11.1017
aggr	-11.1021
Pan	-11.1024
jqne	-11.1025
EV	-11.1027
lkdcjxqnetworkzi	-11.1034
purchase	-11.1034
motionnotify	-11.1037
TAB	-11.1044
▁obex	-11.1045
incident	-11.1047
owl	-11.1055
exclusion	-11.1058
ambient	-11.1058
nonce	-11.1061
splash	-11.1062
ldr	-11.1075
XMLTEXTREADER	-11.1082
▁pomodoro	-11.1082
reached	-11.1082
▁sac	-11.1086
BUF	-11.1091
▁csndcsndjni	-11.1102
Browser	-11.1106
watchdog	-11.1106
radix	-11.1114
watchpoint	-11.1119
sinh	-11.1128
stipple	-11.113
flavor	-11.113
quiet	-11.1138
frm	-11.1152
introduce	-11.1154
Component	-11.1154
outcome	-11.1155
debugfs	-11.1161
silence	-11.1179
AUTO	-11.1183
retries	-11.1196
decide	-11.1198
zdcr	-11.12
gutter	-11.1202
▁gnataltivec	-11.1203
cyclic	-11.1203
GetTypeInfo	-11.1203
tangent	-11.1204
lerootclcl	-11.1206
▁lterm	-11.1206
runtimeexception	-11.1207
sqlquery	-11.121
TABSTRACT	-11.121
recur	-11.1212
STRINGLIST	-11.1212
cutoff	-11.1213
▁cifs	-11.1214
texgen	-11.1216
Atom	-11.1219
gold	-11.1222
FILENAME	-11.1223
complement	-11.1227
Toggle	-11.1227
Loop	-11.1228
axislabel	-11.1241
ImplSet	-11.1246
permute	-11.1251
NOTEBOOK	-11.1251
communication	-11.1251
multiplier	-11.1251
Receive	-11.1251
tidy	-11.1261
Sym	-11.1267
Normal	-11.1268
gtkprintsettings	-11.1271
bell	-11.1272
Sound	-11.1275
BASIC	-11.1275
▁giraffe	-11.1275
pgrsyncblock	-11.1276
vernac	-11.1276
adaptive	-11.1278
assume	-11.1282
Mouse	-11.1284
Append	-11.1296
evolution	-11.13
Long	-11.1309
rock	-11.1314
built	-11.1316
httpziclientzi	-11.1322
acos	-11.1322
similar	-11.1323
interleaversptr	-11.1329
training	-11.134
weekday	-11.1341
▁dlm	-11.1342
▁gtkdoc	-11.1344
▁gamgiengine	-11.1346
▁finderpathcount	-11.1349
▁camlCoq	-11.1349
syntaxesats	-11.1353
Domain	-11.1358
mitted	-11.1364
gobjectnotify	-11.1371
WATCH	-11.1374
▁vinagre	-11.1374
exponential	-11.1375
explode	-11.1376
Offset	-11.1377
joy	-11.1379
zifusionzi	-11.138
Raw	-11.1395
OK	-11.1396
▁semanage	-11.1404
mfnb	-11.1406
Ptr	-11.1411
plotter	-11.1413
cheat	-11.1417
ativerate	-11.1422
▁MAINTMAINIDE	-11.1423
CLIENT	-11.1423
edatsstaload	-11.1423
heuristic	-11.1423
penalty	-11.1423
▁dleynamedia	-11.1427
theta	-11.1435
trayicon	-11.1436
keypressevent	-11.1441
italic	-11.1448
Random	-11.1449
Push	-11.145
webappzitypes	-11.1464
california	-11.1467
▁gkdexported	-11.1473
declarator	-11.1473
synthesize	-11.1473
jaxb	-11.1474
svgpathseg	-11.1476
▁dstdalgorithm	-11.1488
sieve	-11.1488
PEG	-11.1491
TCUSTOMSYNEDIT	-11.1498
sequential	-11.1498
modifiable	-11.1498
HDC	-11.1502
▁swigvar	-11.1503
unbounded	-11.1504
▁acton	-11.1507
▁findercolumng	-11.1522
cumulative	-11.1523
dialect	-11.1523
Focus	-11.1523
▁pgp	-11.1523
▁batadv	-11.1526
inheritance	-11.1526
Exit	-11.1528
meth	-11.1531
▁sRef	-11.1533
CLICK	-11.1533
▁gtggcmx	-11.1548
executive	-11.1548
volatile	-11.1548
ubuntu	-11.1548
shopping	-11.1548
zap	-11.1549
cannotbenull	-11.1553
NC	-11.1556
tkz	-11.1564
prefixes	-11.1567
clicklistener	-11.1567
onlyresulttahv	-11.1572
amplitude	-11.1573
Serial	-11.1573
chrome	-11.1573
datazibytestring	-11.1574
Auto	-11.1575
marshalvoid	-11.1579
gar	-11.1584
INTER	-11.1585
ccfsptr	-11.1587
FREE	-11.159
REPLACE	-11.1598
Effect	-11.1598
Extension	-11.1598
FPDOC	-11.1599
▁mysqlnd	-11.1604
elasticsearch	-11.1604
▁kml	-11.1606
▁gearyimapdb	-11.1615
offscreen	-11.1617
Finish	-11.1624
isnota	-11.1624
Pixmap	-11.1624
gsimpleaction	-11.1625
antialias	-11.1627
mvc	-11.1631
SHA	-11.1639
gadget	-11.1643
iscolumnorder	-11.1649
TOOLBAR	-11.165
Swap	-11.1652
contained	-11.1652
digital	-11.1659
unrealize	-11.1661
canonicalize	-11.1662
stateful	-11.1673
applicable	-11.1674
▁wrapglp	-11.1675
▁glxdispswap	-11.1676
OPTIONSTEDITOR	-11.1676
throwable	-11.1676
sptrrel	-11.1677
leak	-11.1678
permutation	-11.1684
▁findbyg	-11.1688
PERSISTENT	-11.1699
decrease	-11.17
▁glXDispSwap	-11.17
FIX	-11.17
apedlg	-11.1722
gtuajttjqnetwork	-11.1725
▁gtpchnx	-11.1725
hybrid	-11.1725
BACK	-11.1725
ibilitygtkatk	-11.1726
zlz	-11.1736
fsck	-11.1737
▁camlBi	-11.1744
integrity	-11.1751
PROVIDER	-11.1751
cqbacktick	-11.1751
negotiate	-11.1751
▁qtshellq	-11.1751
Struct	-11.1751
daily	-11.1752
▁iwic	-11.1752
▁glxdisp	-11.1776
pyramid	-11.1776
▁mongo	-11.1785
postscript	-11.1789
steal	-11.1795
least	-11.1796
FLOAT	-11.1802
simvocation	-11.1802
computation	-11.1802
▁xdispswap	-11.1804
profilegl	-11.1805
something	-11.1806
Vec	-11.1817
slope	-11.1818
COLUMN	-11.1828
CONTROLSTCONTROL	-11.1828
coalesce	-11.1828
HEADER	-11.1828
cylindrical	-11.1828
hbmxml	-11.1828
▁preendprofilegl	-11.1828
▁sftp	-11.1828
▁beginprofilegl	-11.1829
Cancel	-11.1829
▁endprofilegl	-11.183
▁dataprofilegl	-11.183
DEC	-11.1834
Rule	-11.1835
grey	-11.1839
autocomplete	-11.1842
memcpy	-11.1849
lowest	-11.1849
interfacegetinfo	-11.1851
cassandra	-11.1854
latitude	-11.1854
▁winestubI	-11.1858
xazbycodeunitf	-11.1863
▁xdisp	-11.1871
▁dgn	-11.1872
OLE	-11.1878
retrieval	-11.188
severity	-11.188
tanh	-11.1881
▁bson	-11.1881
▁rygelexternal	-11.1888
▁iddx	-11.1897
▁IDDX	-11.1905
justify	-11.1907
Encrypt	-11.1907
typeszdfdata	-11.1907
MEMO	-11.1908
▁UPS	-11.1909
zdwzdcshow	-11.1919
drill	-11.1926
observation	-11.1931
gtkbuttonclicked	-11.1933
TDATETIME	-11.1939
ONE	-11.1953
▁ScmGdk	-11.1957
chromium	-11.1958
▁camlXquery	-11.1958
▁camlCommon	-11.1962
genome	-11.1964
jpg	-11.1965
SETUP	-11.1981
sstdfunctionalt	-11.1984
accumulator	-11.1984
Install	-11.1984
httpapidata	-11.1984
specify	-11.1986
▁glXDisp	-11.1989
▁opcgen	-11.1992
rail	-11.1997
▁msvcp	-11.201
horiz	-11.2011
▁wrapsac	-11.2012
latlon	-11.2018
gstreamer	-11.2025
semigroup	-11.203
▁iwlmvm	-11.2036
STATEMENT	-11.2037
electron	-11.2039
nexus	-11.2039
▁hostapd	-11.2041
▁byteszu	-11.2042
▁dupconfig	-11.2049
enhance	-11.2058
GEARPTRSMALLINT	-11.206
shield	-11.2063
widen	-11.2064
▁FINDDECLARATION	-11.207
eclipse	-11.207
▁applyinitial	-11.2077
parameterized	-11.2079
soup	-11.208
rebeginprofilegl	-11.2082
tracing	-11.209
Reference	-11.209
Use	-11.2119
ddmstructure	-11.212
minimizer	-11.2126
▁stratagus	-11.2142
▁thatpresent	-11.2143
axiom	-11.2159
secondarycolor	-11.2163
yxddpi	-11.2169
relevant	-11.2169
▁baseghcziiozi	-11.2169
expiry	-11.2169
reveal	-11.2173
rootclcl	-11.2174
transmission	-11.2178
chosen	-11.2184
SMALLINTSMALLINT	-11.2195
adjacent	-11.2196
ensight	-11.2196
Begin	-11.2196
▁XSNet	-11.2199
▁thispresent	-11.2201
▁rygeltracker	-11.2201
polydatafilter	-11.2204
shallow	-11.2209
selectfromswhere	-11.2217
spectral	-11.2219
mustnot	-11.222
lefloatgr	-11.2224
hotspot	-11.2224
bomb	-11.2227
▁plplot	-11.2228
EXEC	-11.2228
Certificate	-11.2249
DISPLAY	-11.2249
analytic	-11.2249
intellij	-11.2249
▁INTERFACEBASET	-11.2249
estimator	-11.225
TARGET	-11.225
DIS	-11.2254
▁basedatazi	-11.2262
lifetime	-11.2268
spdif	-11.2269
loan	-11.2275
▁ghb	-11.2275
typeszdford	-11.2276
▁searchxapian	-11.2276
SPACE	-11.2276
follower	-11.2277
tpm	-11.2278
vdv	-11.2283
▁gamgigtk	-11.2283
Align	-11.2302
mention	-11.2311
Compress	-11.2315
qmmm	-11.2327
unrecognized	-11.2331
greaterthan	-11.2331
tayat	-11.2334
▁swigdelete	-11.2335
decomp	-11.2344
▁athkl	-11.2357
Generate	-11.2358
upperbound	-11.2362
telnet	-11.2373
AXIS	-11.2384
hasbeen	-11.2385
▁rmiconnect	-11.2398
axazbycodeunit	-11.2401
Misc	-11.2401
ayaaya	-11.2405
longitude	-11.2412
indicate	-11.2412
reminder	-11.2412
ignoring	-11.2413
ANCE	-11.2418
▁nulldrv	-11.2421
Collect	-11.2437
Iterator	-11.244
quadric	-11.244
tokenize	-11.2454
Persist	-11.2465
Security	-11.2467
GDK	-11.2467
Light	-11.2467
▁graal	-11.2472
setcontracts	-11.2472
cosh	-11.2485
dlna	-11.2486
ziansizileijen	-11.2495
▁ansiwzu	-11.2495
scoring	-11.25
population	-11.2502
▁PROPEDITST	-11.2502
htmlinputelement	-11.2505
Pass	-11.2508
UAL	-11.2515
▁javacomsun	-11.2522
OUND	-11.2523
camlOmakebuiltin	-11.2537
CALC	-11.2539
lmdp	-11.254
ozzcf	-11.2549
vhvyesodziformzi	-11.255
epsilon	-11.255
alltoall	-11.2554
clipped	-11.2561
aygi	-11.257
▁rsvg	-11.2574
deny	-11.2575
xtohashfnbnekxs	-11.2578
Pack	-11.2579
▁genfractu	-11.2581
relax	-11.2583
Configure	-11.2584
HWND	-11.2606
▁camlGencommon	-11.2606
sketch	-11.2606
activationuwsw	-11.2606
roster	-11.2608
could	-11.2608
Grid	-11.261
Mime	-11.2611
paging	-11.2612
APP	-11.2613
partner	-11.2615
epilog	-11.263
Work	-11.2634
billing	-11.2634
annotator	-11.2638
unichar	-11.2639
▁qib	-11.2644
▁PK	-11.2644
▁setjshtml	-11.2648
zsortedrange	-11.2661
basesrcpanoimage	-11.2662
symmetry	-11.2662
▁ppcopc	-11.2664
uppercase	-11.2676
serialise	-11.2687
dvlbewimcryptozi	-11.269
unattended	-11.269
modulator	-11.269
Layout	-11.269
Root	-11.269
TGDBMIDEBUGGER	-11.269
copied	-11.269
▁nhlcvt	-11.2691
beep	-11.2697
geometric	-11.2698
extraction	-11.2705
Private	-11.2718
facecomcanonical	-11.2718
mapzibase	-11.2719
▁rxvt	-11.2721
focal	-11.2727
netcdf	-11.2739
DirectMusicTrack	-11.2741
▁Graal	-11.2746
dollar	-11.2746
STAT	-11.2754
VERSION	-11.2774
GRIDSTCUSTOMGRID	-11.2774
▁NhlCvt	-11.2774
altitude	-11.2774
comparable	-11.2774
lttng	-11.2775
approve	-11.2782
ouch	-11.2787
codon	-11.2799
Uniform	-11.2803
termstructure	-11.2804
transcoder	-11.2805
NOT	-11.2811
MAKE	-11.2814
DOMTDOM	-11.2815
▁mlgslsf	-11.2822
rwlock	-11.2827
▁MPIR	-11.2831
ohvfyazz	-11.2831
Split	-11.2834
directmusictrack	-11.2834
sstdalgorithm	-11.2836
Variable	-11.286
▁gsmmapms	-11.286
Reply	-11.286
UTIL	-11.2861
▁ssg	-11.2863
Mapping	-11.2869
tilt	-11.2874
▁simix	-11.2876
delimited	-11.2882
ayix	-11.2883
INPUT	-11.2888
▁wrapapol	-11.2889
springframework	-11.2889
examine	-11.289
CALL	-11.2892
supp	-11.2898
ewpx	-11.29
Return	-11.2901
▁borg	-11.2916
Paint	-11.2925
Mask	-11.2926
GRA	-11.293
wallpaper	-11.294
▁javagnujava	-11.2946
EXTERNAL	-11.2946
contributor	-11.2946
huffman	-11.2946
recurrence	-11.2946
COPY	-11.2946
thesame	-11.2948
didnot	-11.2955
OES	-11.2962
ellipsoid	-11.2975
EXTRACT	-11.2975
SYS	-11.2983
chown	-11.2984
collate	-11.2985
Drop	-11.3002
DRAG	-11.3004
flood	-11.3004
vault	-11.3008
▁urj	-11.3009
BTN	-11.3016
evolve	-11.3027
zdwzdcz	-11.3032
gauge	-11.3032
▁lppeomalppe	-11.3033
synonym	-11.3033
▁mpqill	-11.3033
▁avxvl	-11.3033
Unicode	-11.3034
▁genavxvl	-11.3035
staging	-11.3043
obo	-11.3049
episode	-11.3062
bearer	-11.3064
Layer	-11.3092
spgrclcliterator	-11.3093
Signal	-11.3112
sandbox	-11.3115
species	-11.3121
proxies	-11.3121
Descriptor	-11.3121
keepwithnext	-11.3121
delegation	-11.3121
▁fmpzpoly	-11.3123
galax	-11.3124
lecture	-11.3126
crawl	-11.3126
snprintf	-11.3129
▁rmiprotocol	-11.3139
aryfunctions	-11.3139
▁gxgcairo	-11.3142
▁gxgpango	-11.3143
kvkizbitpacked	-11.315
▁chsystemsxcisd	-11.315
configurator	-11.315
kvmizbitpacked	-11.315
▁DEFINETEMPLATES	-11.315
PRI	-11.3151
Frag	-11.3151
Controller	-11.3152
sslctx	-11.316
handlerziwarpzi	-11.3173
▁adanumericslong	-11.3174
universal	-11.318
POPUP	-11.318
merging	-11.318
coupon	-11.318
uniq	-11.3184
Single	-11.3184
▁drbd	-11.3186
wallet	-11.3197
▁camlpstruct	-11.3202
house	-11.3204
planar	-11.3207
architecture	-11.3209
▁vpnetlib	-11.3209
Symbol	-11.321
beginning	-11.321
lexical	-11.3211
percentile	-11.3212
recentchooser	-11.3216
radar	-11.3233
Dispatch	-11.3238
manipulator	-11.3239
Attack	-11.3239
▁camlXml	-11.3239
extrusion	-11.324
▁valadocapi	-11.3246
compositing	-11.3269
Provider	-11.3269
▁rbsigar	-11.3269
▁ARENASCRIPT	-11.3269
decorate	-11.3269
transesats	-11.3275
thermal	-11.3284
ORDER	-11.329
▁unitywebapps	-11.3294
unittestharness	-11.3298
mozilla	-11.3299
TXMLCONFIG	-11.3299
toomany	-11.33
▁tactics	-11.3302
Norm	-11.3314
musicplayer	-11.3315
ackgroundcopyjob	-11.3326
LAYOUT	-11.3328
DATETIMEPICKER	-11.3328
Monitor	-11.3328
postgresql	-11.3328
CALLSTACK	-11.3329
unicodetablesuni	-11.3329
TABCONTROL	-11.3329
Order	-11.333
reachable	-11.333
scrub	-11.3335
grabber	-11.3336
dumb	-11.334
CPUPOWERPC	-11.3358
▁gprinstall	-11.3359
receipt	-11.3359
Merge	-11.3359
ohll	-11.3361
Clone	-11.3361
ntlm	-11.3374
▁cubeaxesactor	-11.3389
keepwithprevious	-11.3389
Entity	-11.3389
▁DBF	-11.3392
reverb	-11.3401
serde	-11.341
▁icet	-11.3411
vayaazunaryfunt	-11.3419
Cipher	-11.3419
privacy	-11.3419
DIFF	-11.3422
▁pico	-11.3423
ECTTPRO	-11.3424
ease	-11.3432
fnanbni	-11.3435
mxfnanbndninfz	-11.3449
representative	-11.3449
underlying	-11.3449
mesa	-11.3466
foofoo	-11.3478
authenticator	-11.3479
▁lwtunix	-11.3483
▁magick	-11.3485
descending	-11.3486
▁libxl	-11.3502
GDBMI	-11.3509
▁ldcdsoctor	-11.351
▁ldcdsodtor	-11.351
▁PKIX	-11.351
Generic	-11.351
synthesis	-11.351
▁camlNetplex	-11.351
organize	-11.351
bird	-11.3532
inkscape	-11.3541
lookahead	-11.3541
▁DEBUGGERTIDE	-11.3541
ijjj	-11.3543
eviction	-11.3545
PSPASCALCOMPILER	-11.3571
PROPERTIES	-11.3571
caught	-11.3571
Chain	-11.3571
pointplacer	-11.3572
TIFF	-11.3572
clipplane	-11.3574
Any	-11.3575
▁ranap	-11.3576
updating	-11.358
▁sndpcm	-11.3582
▁orggnome	-11.3593
▁PACKAGEDEFS	-11.3602
welcome	-11.3602
▁IDirect	-11.3604
▁gsmexported	-11.3604
minimalfolder	-11.3607
Cleanup	-11.3608
eibg	-11.3611
genotype	-11.3612
watermark	-11.3618
agenda	-11.3633
wzztestzitastyzi	-11.3633
fixture	-11.3633
lcopyvalue	-11.3634
▁nua	-11.3636
▁wrapconfigfile	-11.3647
▁strea	-11.3663
supplicant	-11.3663
CONTENT	-11.3664
zmzn	-11.3664
Transfer	-11.3664
ToString	-11.3689
Pattern	-11.3695
boundaries	-11.3695
justification	-11.3696
ipersiststream	-11.37
vdfmask	-11.3702
vsfmask	-11.3705
ystemziconsolezi	-11.3726
transenvesatsthe	-11.3729
IMAGELIST	-11.3731
TWS	-11.3736
thermo	-11.3747
▁aoraicabscil	-11.3757
centroid	-11.3759
sstdconcurrencyt	-11.3765
ATTRIBUTES	-11.3767
tarraytypele	-11.3779
InPlace	-11.3789
frustum	-11.3789
▁modnfmpi	-11.3789
zuzdcgmapm	-11.3789
skkwd	-11.3789
initiator	-11.379
supply	-11.3793
simulation	-11.3795
Bound	-11.3795
▁yasm	-11.3799
Coord	-11.3815
plplotjavacjnipl	-11.382
passingmodmp	-11.382
▁cereazu	-11.382
First	-11.382
dynexpesatsdexp	-11.3821
MARKUP	-11.3831
mfnanbninfz	-11.384
ledger	-11.384
tjkp	-11.3848
▁languzu	-11.3852
obsolete	-11.3852
reflexclcl	-11.3852
poisson	-11.3852
remainder	-11.3852
hpfp	-11.3852
kswu	-11.3853
decoding	-11.3855
mutate	-11.3857
▁camlRpc	-11.3859
▁rrlp	-11.386
▁gxggdk	-11.3875
Exec	-11.3877
repositories	-11.3883
PGTKWIDGET	-11.3883
oracle	-11.3885
AVI	-11.3886
Delay	-11.3886
specular	-11.3898
website	-11.3908
DESCRIPTION	-11.3915
▁sockszut	-11.3915
Clause	-11.3915
Valid	-11.3916
STORE	-11.3923
covariance	-11.3936
charmugr	-11.3938
BackgroundCopy	-11.3947
▁atcmdplus	-11.3947
AFTER	-11.3947
enough	-11.3947
bounce	-11.3947
Digest	-11.3949
Collection	-11.395
grace	-11.3951
▁unityprotocol	-11.3953
▁SProc	-11.3962
Volume	-11.3979
transparency	-11.3979
▁slurmdb	-11.3979
switchtobuffer	-11.398
▁dapl	-11.3995
arraytappender	-11.3995
environ	-11.4009
rubberband	-11.4011
lowlevelalsaalsa	-11.4011
▁giza	-11.4012
community	-11.4014
Plot	-11.4014
Packet	-11.4014
shoot	-11.4015
Panel	-11.4018
zimonadzitranszi	-11.402
passphrase	-11.4024
LOCK	-11.4035
redblacktree	-11.4043
proportion	-11.4043
▁httpwww	-11.4048
▁SYNEDITTEXT	-11.4049
dstdinternal	-11.4058
vxlan	-11.406
kmeans	-11.4067
▁baseGHCzi	-11.4075
▁ppapihostmsg	-11.4075
Information	-11.4075
▁drttypeinfoti	-11.4075
depthstencil	-11.4083
▁XSSysVirt	-11.4108
Glyph	-11.4108
recursion	-11.4108
Skip	-11.411
scatterplot	-11.4112
▁paddq	-11.4112
mqqp	-11.4114
dlfileentry	-11.4122
uzzk	-11.4123
cmdlineparser	-11.4126
fock	-11.4131
ound	-11.4131
pubkeyziecczi	-11.414
dataziserializze	-11.414
campaign	-11.414
overridden	-11.414
concatenate	-11.414
wknetworkzisocks	-11.414
Popup	-11.4141
enestf	-11.4141
dtmf	-11.4142
recurring	-11.4142
▁activateCB	-11.4143
ATI	-11.4163
qhg	-11.4168
squash	-11.4173
ypwz	-11.4173
▁gfastfuncdescr	-11.4175
typesziinternal	-11.4178
elastic	-11.4181
zjqe	-11.4205
▁wnck	-11.4206
zipersistzisqlzi	-11.4209
pervif	-11.4218
▁dbusmount	-11.422
Picture	-11.4222
coordinatesystem	-11.4227
▁jsonzuv	-11.4238
COMPRESS	-11.4238
binomial	-11.4238
satellite	-11.4238
▁ansitzu	-11.4238
IPersistStream	-11.4241
bdlv	-11.4249
amqp	-11.425
pwmultiaff	-11.4271
▁tacinterp	-11.4271
Encoding	-11.4272
zitypeszibasezdf	-11.4272
mfnd	-11.4274
rectangular	-11.4276
vhcih	-11.4302
matrices	-11.4304
permanent	-11.4304
PNG	-11.4304
kernelprocessc	-11.4305
LONG	-11.4305
debugging	-11.4308
paginat	-11.431
▁tipc	-11.4321
zuzdczl	-11.4335
MATCH	-11.4336
TINTT	-11.4337
▁zimspl	-11.4337
zdffunctor	-11.4344
resizable	-11.435
ogiamvtextzijson	-11.437
activatable	-11.437
▁psppsheetview	-11.437
Activate	-11.437
nzzar	-11.437
birth	-11.4371
interior	-11.4375
Dict	-11.4379
drawingarea	-11.4381
selinux	-11.4387
operate	-11.4397
▁gwytool	-11.4397
Gdk	-11.4402
stsharedptri	-11.4403
PANEL	-11.4404
▁xemuOp	-11.4404
cscfgvariable	-11.4404
yazappendertat	-11.4408
verified	-11.4408
Decrypt	-11.4414
rkqstring	-11.4436
COLLECTION	-11.4437
hdfhdflibhh	-11.4437
▁sidlrmi	-11.4437
FILL	-11.4437
TDOMNODE	-11.4456
ENUM	-11.4459
inductive	-11.4471
njhs	-11.4471
emoticon	-11.4471
▁pfitsget	-11.4472
CHECKBOX	-11.4472
zuzdczgze	-11.4472
flick	-11.4472
▁dissect	-11.4483
north	-11.449
thresh	-11.4493
motor	-11.4494
TCODETREENODE	-11.4504
▁lassosaml	-11.4504
hyphen	-11.4504
ownership	-11.4512
histfactoryclcl	-11.4538
▁adastringswide	-11.4538
▁lctargd	-11.4538
advisor	-11.4538
▁IDirectPlay	-11.4538
▁finallyITf	-11.4539
Import	-11.4541
▁idirectplay	-11.4543
▁ghid	-11.455
▁finallyitf	-11.4551
eventtablee	-11.4552
borrow	-11.4557
zdfmonoid	-11.4562
huge	-11.4563
marshallingtests	-11.4566
cigar	-11.4566
DESC	-11.4567
▁XSLassoSaml	-11.4572
NOTIFY	-11.4572
COUNT	-11.4574
mosaic	-11.4574
corba	-11.4576
normalization	-11.4589
STACK	-11.4597
instantiator	-11.4606
dayofweek	-11.4606
▁ecoreevas	-11.4606
friendlyurl	-11.4606
advertise	-11.4606
smartcardservice	-11.4606
fncsstd	-11.4608
coercion	-11.464
ambiguous	-11.464
keeptogether	-11.464
vdpau	-11.464
facade	-11.4641
voidmugr	-11.4644
▁adanumerics	-11.4647
zucw	-11.4653
ethtool	-11.4657
VISIBLE	-11.4674
FLAGS	-11.4674
▁Cudd	-11.4675
▁mlcurses	-11.4676
pinned	-11.4676
dbqa	-11.4677
mkfpa	-11.4679
sbtoo	-11.4682
prelude	-11.4691
approximate	-11.4709
facility	-11.4709
lorentz	-11.4709
▁UPSCOMPILERT	-11.4709
atazistreamingzi	-11.4709
▁purecustom	-11.4709
Section	-11.471
pairwise	-11.4715
Clean	-11.4738
fbyb	-11.4738
loadbalancer	-11.4739
zistorable	-11.4742
forbidden	-11.4743
spherical	-11.4743
▁monadzuk	-11.4743
Parameterfv	-11.4747
▁finallyIEnum	-11.4748
PROPEDIT	-11.4749
BUTTONCLICK	-11.4749
▁tmpgdk	-11.4749
DECLARATIONTOOL	-11.4769
Physical	-11.4778
hamletziparse	-11.4778
approval	-11.4778
travel	-11.4781
constrain	-11.4789
quark	-11.4805
PMC	-11.4811
VALID	-11.4813
▁geoclue	-11.4813
Complete	-11.4813
thrift	-11.4813
Short	-11.4821
idlxrmisimpleorb	-11.4828
▁INTFGRAPHICS	-11.4847
Capture	-11.4847
succeeded	-11.4847
gallery	-11.4848
modulus	-11.4848
streamtracer	-11.4849
▁xsglib	-11.4853
bigdecimal	-11.4861
CLIPBOARD	-11.4882
recycling	-11.4882
▁librdfstorage	-11.4882
▁LRESOURCES	-11.4883
Shader	-11.4883
Seek	-11.4884
snetworkzihttpzi	-11.4888
lowerbound	-11.4907
fractal	-11.4918
terminator	-11.4918
PRINTERCANVAS	-11.4918
parcel	-11.4918
zcstd	-11.493
speex	-11.4934
curses	-11.4938
dbusproxyget	-11.4952
pushbufferstat	-11.4952
DELPHI	-11.4953
WIDTH	-11.4953
Invoke	-11.4953
▁gdldock	-11.4953
▁dstdconvt	-11.4953
Title	-11.4953
prologue	-11.4955
staexpesatssexp	-11.4958
Parameteriv	-11.4963
skeletoniface	-11.4966
sniff	-11.4967
yahoo	-11.4988
TGTKWSCUSTOM	-11.4988
CONTROLSELECTION	-11.4989
typesziinstances	-11.4991
rkstvectori	-11.501
collide	-11.5011
nodeofsequenceof	-11.5024
eliminate	-11.5024
▁SYNGUTTER	-11.5024
TexCoord	-11.5024
▁typedarrayi	-11.5025
nsurebufferstack	-11.5027
▁sexplib	-11.5027
identification	-11.5027
identical	-11.5034
FRM	-11.5037
CELL	-11.5058
▁dbusglibmarshal	-11.5059
squelch	-11.5059
STATUS	-11.506
parallelism	-11.5061
TTREENODE	-11.5061
hourglasszitypes	-11.5077
▁camlGencpp	-11.5095
distortion	-11.5095
Grab	-11.5096
Support	-11.5098
▁svgfe	-11.5104
▁ocio	-11.5108
▁counterpoint	-11.5108
idlxrmiipvsocket	-11.5111
IVE	-11.5129
▁unordzu	-11.5131
emergency	-11.5131
mprismediaplayer	-11.5131
Marshal	-11.5131
▁STDCTRLSTCUSTOM	-11.5131
▁trwlayer	-11.5131
qnfo	-11.5131
Special	-11.5132
graft	-11.5133
uwj	-11.5133
bigendian	-11.5134
fraig	-11.5147
pcworktime	-11.5153
▁decodeorgcsapi	-11.516
▁thiscallmsvcp	-11.5167
Progress	-11.5167
▁xemuop	-11.5167
plural	-11.5167
semicolon	-11.5167
Binary	-11.5167
▁ScmGdkEvent	-11.5168
Allocate	-11.5172
rgltext	-11.5186
clef	-11.5198
MONITOR	-11.5203
maintenance	-11.5203
caseinsensitive	-11.5203
▁blazzezu	-11.5203
expunge	-11.5203
denied	-11.5203
embedding	-11.5203
Chunk	-11.5204
universe	-11.5205
COMPONENTEDITOR	-11.5222
lhj	-11.5223
unittriebuildert	-11.5239
predecessor	-11.5239
uncertainty	-11.5239
zixmlzilightzi	-11.5239
Variant	-11.5239
▁finallyiwic	-11.5239
deohl	-11.5239
▁densearrayi	-11.524
panning	-11.5257
TSYNEDITMARKUP	-11.5263
explore	-11.5268
PASCALPARSERTOOL	-11.5275
Properties	-11.5275
translucent	-11.5275
night	-11.5276
inflation	-11.5276
milliseconds	-11.5276
TABSTRACTIDE	-11.5276
Derive	-11.5277
ingtextwriter	-11.5277
Validate	-11.5277
kxsstd	-11.5278
charging	-11.5279
little	-11.528
ddqu	-11.53
zhee	-11.531
szicommandszi	-11.5312
mandatory	-11.5312
manufacturer	-11.5312
▁Fcitx	-11.5312
SPECCV	-11.5312
enigma	-11.5312
▁bfdelf	-11.5313
▁sndhda	-11.5313
▁finallyIOle	-11.5313
▁gdbarch	-11.5314
▁finallyiole	-11.5318
homogeneous	-11.5348
straight	-11.5348
Alpha	-11.5349
helloworld	-11.5353
preempt	-11.5354
slurm	-11.5372
emoji	-11.5381
BEGIN	-11.5385
Constant	-11.5385
▁vboxguestrt	-11.5385
deposit	-11.5385
interlace	-11.5386
permitted	-11.5392
▁SYNEDITMARKUP	-11.5398
scramble	-11.5424
nvtextziparseczi	-11.5459
▁gnsssdr	-11.5459
▁fqzech	-11.5459
UEST	-11.546
eenom	-11.546
▁piepie	-11.546
inference	-11.5461
Heap	-11.5461
fleet	-11.5461
mgdes	-11.5465
SCREEN	-11.5496
jimechoserver	-11.5496
TGRAPHICSCOLOR	-11.5496
▁orgogrogrjni	-11.5496
Depth	-11.5497
ocbov	-11.5497
TRANSLAT	-11.55
SELECTED	-11.55
mdraid	-11.5508
chassis	-11.5508
contrib	-11.5517
qstextziparseczi	-11.5534
ldrkwndatazihash	-11.5534
MIME	-11.5534
▁nmodpoly	-11.5534
jabber	-11.5534
trimmed	-11.5535
▁wrapdatafield	-11.5535
vpimc	-11.5536
setlineno	-11.5554
Common	-11.5565
▁midgard	-11.5571
dissector	-11.5578
ladder	-11.5578
alien	-11.5591
isolated	-11.5606
▁gnomepie	-11.5608
Left	-11.5608
TOOLTFIND	-11.5609
REFERENCE	-11.5609
assumption	-11.5609
Truth	-11.5609
▁fopagenumber	-11.5609
polkit	-11.5614
tvaria	-11.563
irtinputtazinput	-11.5646
inclusive	-11.5646
twitter	-11.5646
dragdatareceived	-11.5647
slaveslaves	-11.5647
DYN	-11.5647
occurred	-11.5649
quirk	-11.5652
UERY	-11.5684
POWERPCSVRNONE	-11.5684
quantifier	-11.5684
messenger	-11.5684
▁gamgimesa	-11.5684
rplibsdpspectrum	-11.5684
compartment	-11.5684
▁httptzujl	-11.5684
residue	-11.5684
structural	-11.5685
▁unnecessary	-11.5687
ggnomepangopango	-11.5694
OPTION	-11.5697
rootclcltarray	-11.5701
become	-11.5714
Custom	-11.5722
▁nmtnewt	-11.5722
Canvas	-11.5722
▁stubndis	-11.5723
ziregexzitdfazi	-11.5723
▁orgjni	-11.5727
▁moserial	-11.5729
tdls	-11.5746
stdstdiofilelock	-11.5755
agree	-11.5757
mainmemorybtree	-11.5761
overriding	-11.5761
▁winestubNdis	-11.5761
harmonic	-11.5761
▁gfmclient	-11.5761
pilot	-11.5765
Cairo	-11.5791
pboostsharedptrt	-11.5799
mfnanbndninfz	-11.58
Enter	-11.5808
▁jcijdvp	-11.5837
consensus	-11.5837
▁wraprigcaps	-11.5837
gekcy	-11.5837
▁randozu	-11.5837
executing	-11.5838
▁CERT	-11.5838
▁rigcaps	-11.5838
uwpa	-11.5838
RADI	-11.5852
idlxrmisimsponse	-11.5869
zlzcuzcuz	-11.5875
UEUE	-11.5876
▁nssckfw	-11.5876
auxiliary	-11.5876
technology	-11.5876
Fetch	-11.5876
clclfitclcl	-11.5876
▁flames	-11.5877
ARUS	-11.5878
Alignment	-11.5878
clazz	-11.5879
orkerglobalscope	-11.5883
propertygridpage	-11.5884
drift	-11.5902
getleng	-11.591
zookeeper	-11.5915
▁pfbarbresampler	-11.5915
english	-11.5915
fromanimala	-11.5915
zuzdcreadlist	-11.5917
znrsy	-11.5952
▁implsidlxrmi	-11.5953
▁UPSRUNTIME	-11.5954
NUMBER	-11.5954
▁mprisplayer	-11.5954
openpgp	-11.5956
Blend	-11.596
TWSCUSTOM	-11.5962
ziunboxed	-11.5965
▁zoe	-11.5965
BINARY	-11.5993
CODEEXPLORER	-11.5993
Palette	-11.5993
volatility	-11.5993
ography	-11.5993
OURCEFILEMANAGER	-11.5993
journalarticle	-11.5996
hessian	-11.6032
rygel	-11.6041
LTREETS	-11.6071
including	-11.6071
bitsvkivkiz	-11.6071
bitsvmivmiz	-11.6071
dvelocityfield	-11.6071
▁fcitx	-11.6071
creative	-11.6073
nurbs	-11.6083
eulrks	-11.6109
PAIR	-11.6111
equivalence	-11.6111
▁sxhashfs	-11.6111
wlsystemzirandom	-11.6111
▁genopmov	-11.6114
shading	-11.6115
ATTRIBUTE	-11.6138
omega	-11.6143
ridge	-11.6148
▁slicingslicing	-11.615
▁wpasdbus	-11.6151
genomic	-11.6151
neigh	-11.6154
verbosity	-11.619
quorum	-11.619
▁yojson	-11.619
RAISE	-11.619
Sprite	-11.619
Location	-11.619
Switch	-11.619
Html	-11.6191
uptodate	-11.6195
zdffoldable	-11.6198
AVA	-11.6201
kanji	-11.6226
▁genfract	-11.6227
zifusionzibundle	-11.6232
▁xsrthin	-11.6235
elabb	-11.6269
DIRECTIVE	-11.627
noroutetohost	-11.627
recyclerview	-11.6271
Basic	-11.6272
▁xfburn	-11.6273
marshalVOID	-11.6311
HISTORY	-11.6311
discriminator	-11.6311
scientific	-11.6311
▁exosip	-11.6311
▁glpmpl	-11.6311
stanza	-11.6311
INDEXOF	-11.6312
isolation	-11.6312
cuzcuzcuzcuzcuz	-11.6314
money	-11.6315
▁MPID	-11.6318
sentinel	-11.6343
▁camlYojson	-11.6351
spectrogram	-11.6351
fmvectormvector	-11.6351
repetition	-11.6351
Protein	-11.6351
elliptic	-11.6351
▁rakia	-11.6351
greedy	-11.6351
▁piecewise	-11.6351
stdutftbydchart	-11.6353
diamond	-11.6356
RECORD	-11.6363
MARKUPHIGH	-11.6378
SIMPLE	-11.6392
▁iwmmxt	-11.6392
notenoughmemory	-11.6392
htseqhtseq	-11.6392
LOADFROM	-11.6393
spreadsheet	-11.6394
▁camlAtd	-11.6395
INDENT	-11.6411
THEME	-11.6433
▁doklattgrid	-11.6433
contiguous	-11.6433
▁camlGalax	-11.6433
▁nonnls	-11.6433
COMMENT	-11.6433
badfiledescript	-11.6444
hatter	-11.6456
iunboxedzibasezd	-11.6462
multiarrayts	-11.6468
drtutilcontainer	-11.6474
▁evgldgl	-11.6474
▁grldleyna	-11.6474
changing	-11.6475
improve	-11.6475
dependence	-11.6476
zmultiarray	-11.648
modcastsidlxrmi	-11.6498
MISCCLASSES	-11.6515
texsubimaged	-11.6515
▁camlLatex	-11.6515
rangeprimitivest	-11.6515
▁coreprocfs	-11.6515
timeofday	-11.6515
aqki	-11.6515
durable	-11.6521
synchro	-11.6543
▁tagsozu	-11.6556
comliferayportal	-11.6556
rvnetworkzidnszi	-11.6556
▁jsapiproperty	-11.6556
▁monoegg	-11.6556
▁gslcdf	-11.6556
would	-11.6557
lengthgeneralord	-11.6575
fnanbndninf	-11.6597
▁XSGnome	-11.6598
▁atncpdlc	-11.6598
scissor	-11.6598
Body	-11.6598
automation	-11.6599
APPLICATION	-11.6639
sgovyomeydtextzi	-11.6639
▁wrapGpiv	-11.6639
Constraint	-11.6639
sgrouppartspart	-11.6639
sliding	-11.6645
fnbni	-11.6674
EFFECT	-11.6681
PASCALREADERTOOL	-11.6681
pointsetpowerset	-11.6681
FUNCTION	-11.6681
Prompt	-11.6681
Alias	-11.6681
rmibindexception	-11.6684
backingeds	-11.6687
▁IPHTML	-11.6723
▁phpmysqlnd	-11.6723
Operation	-11.6723
purpose	-11.6723
cancellable	-11.6724
additive	-11.6724
hsequenceof	-11.6725
TDBG	-11.6726
transenvesats	-11.6756
DESCRIPTOR	-11.6765
▁primizu	-11.6765
▁wrapAtk	-11.6765
lengthfiveord	-11.6767
lengthsevenord	-11.6767
jsdomwindowsvg	-11.6767
Super	-11.6769
disassemble	-11.678
lengthsixord	-11.678
▁SDL	-11.6799
congruence	-11.6808
picasaweb	-11.6808
fullpersonareal	-11.6808
geodesic	-11.6808
Empty	-11.6808
▁camlUnix	-11.6808
▁melder	-11.6808
Fraig	-11.6808
dragging	-11.6809
▁excel	-11.6811
lengtheightord	-11.6823
lengthfourord	-11.6843
smtpoutboxfolder	-11.685
tclaarrayproxy	-11.685
Comment	-11.6851
Solve	-11.6855
tshx	-11.6862
xopequalsfkxs	-11.6893
iozihviozdfhvio	-11.6893
camlOptimization	-11.6893
rsszisyntax	-11.6893
INTEGER	-11.6893
tclaimpproxyle	-11.6893
▁GTKWS	-11.6893
clcltimpproxyle	-11.6893
augment	-11.6893
▁camlSos	-11.6893
danger	-11.6897
hycccxscbkjanytr	-11.6936
▁gdescrtypecheck	-11.6936
shouldhavebeen	-11.6936
▁wrapqpol	-11.6936
ACTIVE	-11.6936
Execute	-11.6936
filediriterator	-11.6937
Shape	-11.6937
▁printxquery	-11.6937
Limit	-11.6943
lengththreeord	-11.6947
SHORTCUT	-11.6979
▁regresstest	-11.6979
maplestringco	-11.6979
phylum	-11.6979
▁wpasupplicant	-11.698
nibble	-11.698
affect	-11.7
▁zzlibzu	-11.7022
▁jcijdvinterface	-11.7022
negotiation	-11.7022
▁vlclua	-11.7022
dominator	-11.7023
▁codeinsight	-11.7066
▁xyplotactor	-11.7066
INSTALL	-11.7066
▁cirrus	-11.7066
coresysposix	-11.7066
programmable	-11.7066
▁aigman	-11.7066
rectilinear	-11.7106
vtyt	-11.7108
DOCUMENT	-11.7109
hexagon	-11.711
▁camlInterp	-11.711
▁brighton	-11.711
BOUNDS	-11.7114
encapsulat	-11.7121
TSOURCETOKEN	-11.7144
gapachetomcatjni	-11.7147
CLEAN	-11.7153
Dynamic	-11.7153
▁fNettle	-11.7153
OWNER	-11.7153
▁ubifs	-11.7154
Usage	-11.7158
xcafdoc	-11.7177
▁AigMan	-11.7197
GENERAL	-11.7197
VARIABLE	-11.7197
izzlibzistream	-11.7197
xrfndatazitimezi	-11.7197
arraydimen	-11.7197
zicompressionz	-11.7197
fthebl	-11.7198
Click	-11.7198
▁systemtasking	-11.7198
amazon	-11.7201
aliforniatoolkit	-11.7204
▁comsungridjgdij	-11.7242
FIRST	-11.7242
discussion	-11.7242
▁camlPrintxquery	-11.7242
DEVICE	-11.7242
testzitastyzi	-11.7242
▁glamor	-11.7242
▁mthca	-11.7243
electric	-11.7243
algroupsequence	-11.7256
EXCEPTION	-11.7286
NOTIFICATION	-11.7286
▁nbnxnkernelelec	-11.7286
explosion	-11.7286
Right	-11.7286
packaging	-11.7286
▁Ivy	-11.7287
people	-11.7287
CLASSEST	-11.7313
TITLE	-11.7328
ipzzzzr	-11.7331
BEFORE	-11.7331
frequencies	-11.7331
triangulation	-11.7331
▁freetennis	-11.7331
lucene	-11.7331
testsquickadd	-11.7331
littleendian	-11.7331
▁listenscm	-11.7331
cobjectthrowable	-11.7332
infinity	-11.7332
vidioc	-11.7332
scanning	-11.7334
dedicated	-11.7376
▁orgmediaplayer	-11.7376
supplement	-11.7376
harvest	-11.7376
Console	-11.7376
emulator	-11.7376
TCODETOOLMANAGER	-11.7379
▁gnutl	-11.7382
declarative	-11.7421
▁camlFreetennis	-11.7421
▁codefnfn	-11.7421
▁sndemuk	-11.7421
confidence	-11.7421
BRUSH	-11.7421
▁dobjecttypeinfo	-11.7421
divisor	-11.7421
enchant	-11.7422
atomzifeed	-11.7466
Geometry	-11.7466
discriminant	-11.7466
ansizicommonzdf	-11.7466
DIRECTIVESTREE	-11.7466
automaton	-11.7466
Cube	-11.7467
▁amdlib	-11.7468
TERM	-11.7469
▁camlTyper	-11.7469
reparedstatement	-11.7488
extrema	-11.7496
MATRIX	-11.7497
logistic	-11.7505
neutral	-11.7511
PLUGINMULTICARET	-11.7511
pomogneg	-11.7511
possibly	-11.7511
negpomog	-11.7511
saturate	-11.7511
mixture	-11.7511
maintain	-11.7512
▁gwarraytype	-11.7513
zuzdcbasicunsafe	-11.7551
rhythm	-11.7557
Argument	-11.7557
▁camlCodefnfn	-11.7557
otocolzitlszignu	-11.7557
Scope	-11.7557
zdgliteralmfnan	-11.7568
aorailogictyping	-11.7569
WORDTSHIFTSTATE	-11.7576
aterialinterface	-11.7588
tdfazicommon	-11.7602
bitmanipbitarray	-11.7603
Description	-11.7603
clclminuitclcl	-11.7603
▁CRYPT	-11.7603
interference	-11.7603
▁PyDia	-11.7603
▁CODETOOLMANAGER	-11.7603
densefeaturest	-11.7603
dgcwr	-11.7603
outlier	-11.7604
gdalconst	-11.7604
crcFB	-11.7605
powerpcsvrnone	-11.7607
▁ksba	-11.7607
▁totem	-11.7629
wmfse	-11.7631
denominator	-11.7649
antenna	-11.7649
ripple	-11.765
▁netplex	-11.765
CONNECT	-11.7695
▁resouzu	-11.7695
implidirectmusic	-11.7695
GENERIC	-11.7695
drsuapi	-11.7695
SUPPORT	-11.7695
▁camlSchema	-11.7707
▁vasy	-11.7741
▁penglextension	-11.7742
nboostsharedptri	-11.7742
▁cirrusbitblt	-11.7742
exceeded	-11.7742
▁imapdbfolder	-11.7742
columnbitmask	-11.7742
▁procprt	-11.7742
▁amdms	-11.7743
gtktreeselection	-11.7787
deterministic	-11.7788
PARENT	-11.7788
zlzcuzr	-11.7788
ziparserzitoken	-11.7789
SYSTEM	-11.7812
▁httpazu	-11.782
selfshareddso	-11.7835
POINTCLASSESTSYN	-11.7835
▁folksdummy	-11.7835
getidsofnames	-11.7835
Application	-11.7835
arrangement	-11.7836
sparsefeaturest	-11.7836
▁pgrdigital	-11.7836
Pool	-11.7839
regatorscopeimpl	-11.7856
▁DEBUGSTART	-11.7878
motif	-11.7881
toomanyopenfiles	-11.7883
Character	-11.7883
▁musiclens	-11.7883
arraysmartcopy	-11.7883
doublecodoubleco	-11.7892
▁netplexctrlaux	-11.793
▁DBGRIDST	-11.793
LTXmcrypt	-11.793
recognition	-11.793
▁bonobo	-11.793
attendee	-11.793
▁makeutl	-11.793
vestdtypecons	-11.793
portrait	-11.793
tktreeviewcolumn	-11.7947
ImplIDirectMusic	-11.7967
BREAK	-11.7977
unaryfunvayaae	-11.7978
ICHARTDRAWER	-11.7978
Priority	-11.7978
orthogonal	-11.7978
ANCHOR	-11.7978
arrayisroworder	-11.7978
sufficient	-11.7978
PASCAL	-11.7978
subrulesflag	-11.7978
diameter	-11.7979
eesrcstaexpesats	-11.8003
sspropertywebkit	-11.801
tocomplexsptr	-11.8017
SGIX	-11.8025
zimonadic	-11.8025
daptorfetchallby	-11.8025
UNITDEPENDENCIES	-11.8025
retention	-11.8025
▁sndhdsp	-11.8026
▁youtube	-11.8026
getborderbefore	-11.8026
zformattedwritef	-11.8027
arraycreatecol	-11.8027
CASE	-11.803
pcnproduced	-11.8036
wrapgwydatafield	-11.8055
miserverregistry	-11.8062
APPLY	-11.8074
Plugin	-11.8074
▁dotosgwrapper	-11.8074
explanation	-11.8074
▁fileslens	-11.8074
FPCUNIT	-11.8074
behind	-11.8093
▁micromega	-11.8122
▁Vasy	-11.8122
▁couldnt	-11.8122
Prepare	-11.8122
awtpeergtkgtk	-11.817
ENUMERATOR	-11.817
▁gnatspitbol	-11.817
▁Wisehardlink	-11.817
vmizpacked	-11.817
vkizpacked	-11.817
Polygon	-11.817
Rotate	-11.8182
FOLDEDVIEWTSYN	-11.821
htmlzitagsoupzi	-11.8219
▁unityvideolens	-11.8219
curvature	-11.8219
▁camlMicromega	-11.8219
parquet	-11.8219
brief	-11.8219
HOOK	-11.8239
ziconcurrentzi	-11.8264
RETURN	-11.8268
▁dgraphdgraph	-11.8268
attenuation	-11.8268
Library	-11.8268
Curses	-11.8268
Watch	-11.8269
ATOM	-11.8287
▁genhelperp	-11.8292
ibility	-11.8311
▁unitymusiclens	-11.8317
Anchor	-11.8317
crystal	-11.8317
▁lpfcsli	-11.8322
englrenderwindow	-11.8352
▁iprouzuq	-11.8367
ziclasszipersist	-11.8367
ingredient	-11.8367
scalarstocolors	-11.8367
▁VMpr	-11.8367
▁dejadupbackend	-11.8367
▁orgfreedesktop	-11.8367
xpflet	-11.8367
localserviceutil	-11.8367
amlRpcportmapper	-11.8368
lobalsubiznbagel	-11.839
▁unityfileslens	-11.8417
EXPAND	-11.8417
MARKUPIFDEFTSYN	-11.8417
Adjust	-11.8417
▁ioioexception	-11.8417
obgj	-11.8418
chipintelklamath	-11.8467
ACKAGEEDITORFORM	-11.8467
▁EXTCTRLSTCUSTOM	-11.8467
mwjf	-11.8467
Assoc	-11.8467
unsignedspintco	-11.847
disjunct	-11.8476
kizonlyresult	-11.8516
mizonlyresult	-11.8516
GetIDsOfNames	-11.8517
MODULE	-11.8517
delaunay	-11.8517
▁baobab	-11.8517
audience	-11.8517
▁RTTICTRLST	-11.8517
blowfish	-11.8517
▁wlcphy	-11.8517
lijba	-11.8517
▁dsmcc	-11.8517
pileup	-11.8519
LABEL	-11.852
gtktreestore	-11.8552
CALENDAR	-11.8567
WIDECHAR	-11.8567
▁BUFDATASETT	-11.8567
ALLOCATE	-11.8567
▁SaigMan	-11.8567
ntdataziipziaddr	-11.8567
▁saigman	-11.8567
BEAUTIF	-11.8568
zdLr	-11.8568
arrival	-11.8568
setborderbefore	-11.8568
ackadder	-11.8572
teacher	-11.8588
necessary	-11.8608
SOCKET	-11.8618
Shutdown	-11.8618
▁gnatawk	-11.8618
unauthorizedcall	-11.8618
hsdsch	-11.8618
▁hfsplus	-11.8618
descriptive	-11.8618
CUSTOMFORMEDITOR	-11.8619
Bool	-11.8619
bogus	-11.8619
scribe	-11.8636
▁megasas	-11.8669
fichier	-11.8669
Visual	-11.8669
istantziwebappzi	-11.8685
zlzcuzcuzcuzcuz	-11.8698
tessellator	-11.8721
vanilla	-11.8721
behaviour	-11.8721
camlDgraphDGraph	-11.8721
satisfied	-11.8721
ensemble	-11.8721
BROWSE	-11.8721
luminance	-11.8721
Detect	-11.8721
separation	-11.8721
▁imagereslice	-11.8721
compiling	-11.8721
lexeme	-11.8722
eesrcdynexpesats	-11.8722
quadrature	-11.8772
COOLBAR	-11.8772
dwritetextlayout	-11.8772
removable	-11.8772
arraymodcastsidl	-11.8774
dcerpc	-11.8774
rofitscfitsioffg	-11.8792
continu	-11.8822
ANVASTPOSTSCRIPT	-11.8824
▁PACKAGESYSTEM	-11.8824
▁LVLGRAPHCTRL	-11.8824
coarse	-11.8849
tcurlmessaget	-11.8876
SPECIAL	-11.8876
▁nssCKFW	-11.8876
coupling	-11.8876
▁xbmcgui	-11.8876
▁pvrenderview	-11.8876
▁pmtvector	-11.8876
negposnomog	-11.8928
parentheses	-11.8928
posposnomog	-11.8928
▁integerzmgmp	-11.8928
▁xdrndmp	-11.8928
tabbedpane	-11.8928
Drag	-11.893
couple	-11.8933
esatsstaload	-11.8946
htmlbodyelement	-11.8947
ayataya	-11.898
ENDFETCH	-11.8981
Language	-11.8981
outstanding	-11.8981
Declaration	-11.8981
Piece	-11.8981
SERVER	-11.8981
▁excepzuv	-11.8981
fourier	-11.8997
doublecodoublegr	-11.9013
Radi	-11.9024
geldkarte	-11.9034
corresponding	-11.9034
decimate	-11.9034
▁athkwmi	-11.9034
▁virgl	-11.9034
datamapnodeof	-11.9066
COMPLETE	-11.9087
kinematics	-11.9087
receiving	-11.9087
surrogate	-11.9087
dnamatchblock	-11.9087
verilog	-11.9087
erfacemainhandle	-11.91
ternary	-11.9136
magnifier	-11.9141
creature	-11.9141
▁xspolymake	-11.9141
TRAWIMAGE	-11.9141
ENABLED	-11.9141
floppy	-11.9141
zdfstorable	-11.9141
reebgraph	-11.9141
monotonic	-11.9141
datamapofshape	-11.9141
tearoff	-11.9141
appdatabrowser	-11.9141
deleting	-11.9142
chorus	-11.9143
TUNITINFO	-11.9181
OOLTCODECO	-11.919
▁DBCTRLSTDB	-11.9194
▁tokyocabinet	-11.9194
survey	-11.9194
telemetry	-11.9194
▁dkimf	-11.9194
summarize	-11.9194
prioritize	-11.9194
refusedexception	-11.9194
▁irplib	-11.9195
▁zgemv	-11.9195
▁cctsp	-11.9195
▁cgemv	-11.9197
inquire	-11.9213
SKILL	-11.9248
Cluster	-11.9248
Identifier	-11.9248
Registry	-11.9248
Template	-11.9248
TMPVAR	-11.9248
perpropfuncosg	-11.9248
▁diagnose	-11.9248
Boolean	-11.9248
▁hcinfc	-11.9249
scramblerbbsptr	-11.9249
better	-11.9254
INCLUDE	-11.9303
SYMBOL	-11.9303
CHARACTER	-11.9303
RELEASE	-11.9303
exhaust	-11.9303
hilbert	-11.9303
▁hippocanvas	-11.9303
Schedule	-11.9303
▁HYD	-11.9303
▁vteterminal	-11.9303
perserializerosg	-11.9303
▁america	-11.9303
incidence	-11.9303
▁bfaioc	-11.9304
CLIP	-11.9304
Cross	-11.9304
▁helpermsa	-11.9309
ttpzitypes	-11.9316
INSTRUCTION	-11.9357
PROGRESS	-11.9357
aperture	-11.9357
▁asntzupe	-11.9357
▁setgdbarch	-11.9357
regulator	-11.9357
▁gbemol	-11.9357
acceleration	-11.9357
federation	-11.9358
extrude	-11.9359
nonexistent	-11.9364
gdkscreenget	-11.941
DnaMatchBlock	-11.9412
inclusion	-11.9412
swizzle	-11.9412
SPECCONST	-11.9412
History	-11.9412
fdsydataziasnzi	-11.9412
xupxh	-11.9413
▁Xgra	-11.9413
▁aoraiival	-11.9413
▁modfgd	-11.9413
sgbfr	-11.9421
combinedfisptr	-11.9438
enstenableifixsr	-11.9466
eevalueens	-11.9467
▁hypertreegrid	-11.9468
lkwzzcncmdhainbt	-11.9468
Material	-11.9468
PackAln	-11.9468
▁BUILDPARSETREE	-11.9468
▁oldtizu	-11.9468
ctormfnanbncn	-11.9468
invitation	-11.9468
remoting	-11.9468
itialpropertyset	-11.9486
MPLETIONCODETOOL	-11.9505
pushiznsregister	-11.9521
contextpusherif	-11.9521
etypeepluastates	-11.9523
▁CODECOMPLETIONT	-11.9523
Available	-11.9523
BOOKMARK	-11.9523
Feature	-11.9523
▁ogmdvd	-11.9523
▁champlain	-11.9523
doespointto	-11.9523
cholesky	-11.9523
heavy	-11.9523
pcmcia	-11.9523
captcha	-11.9524
tight	-11.9526
crcAE	-11.953
TBUILDPARSETREE	-11.9564
PREPROCESSOR	-11.9579
▁fmpzmodpoly	-11.9579
▁wrapgpiv	-11.9579
▁XMdc	-11.9579
ENTITY	-11.9579
▁XDRV	-11.9579
cancellation	-11.9579
gndur	-11.9585
combinedfbsptr	-11.9603
TSHIFTSTATE	-11.9612
crcEF	-11.9627
TAVLTREE	-11.9635
▁camlGrdev	-11.9635
▁camlUigtk	-11.9635
MECHA	-11.9636
▁GTKWSSTDCTRLS	-11.9638
DRI	-11.964
ccompenvesats	-11.9647
htmlmediaelement	-11.9675
Trigger	-11.9692
▁mlibprj	-11.9692
Choice	-11.9692
ORMSTAPPLICATION	-11.9692
centric	-11.9695
lorgeclipseswt	-11.97
gsetupmemvarteve	-11.9715
STRUCT	-11.9731
combinedcisptr	-11.974
protocolzixmppzi	-11.9748
tedwritetsstd	-11.9748
nijgdiimpl	-11.9748
EMPTY	-11.9748
Statistics	-11.9748
enumfromthen	-11.9748
jvkn	-11.9761
ordinate	-11.9772
▁deelibats	-11.9806
SCHEME	-11.9806
triangulate	-11.9806
TFPCUSTOMIMAGE	-11.9806
crosshair	-11.9806
gjwlsystemzitime	-11.9806
▁BWL	-11.9808
KIND	-11.9847
▁TACHART	-11.9861
▁xsgslsf	-11.9862
INSTANCE	-11.9863
guarantee	-11.9863
▁cheese	-11.9863
marquee	-11.9863
Reduce	-11.9864
GUID	-11.9868
pstructgrammar	-11.9878
resentationstate	-11.9895
LENGTH	-11.9921
▁orggnomeatkatk	-11.9921
adjacency	-11.9921
appropriate	-11.9921
wqpolynomialfold	-11.9921
▁gkdsecret	-11.9921
LEGEND	-11.9921
families	-11.9921
attention	-11.9921
bvmizbitpacked	-11.9921
Music	-11.9921
bvkizbitpacked	-11.9921
Curve	-11.9921
Break	-11.9921
perfect	-11.9921
combinedcssptr	-11.9922
jaxrs	-11.9938
pervasive	-11.9979
infiniband	-11.9979
indinfilesplugin	-11.998
trofitscfitsioff	-11.9997
itergtktextiter	-12.0037
Attach	-12.0037
packOcaml	-12.0038
Cookie	-12.0038
▁pxaxx	-12.0038
ripemd	-12.0038
▁mpidich	-12.0038
turbo	-12.0059
PublicKey	-12.0096
dijkstra	-12.0096
▁wrappoppler	-12.0096
purple	-12.0096
baseghczieventzi	-12.0109
sidlxrmisettings	-12.0127
TLVLGRAPH	-12.0155
nternalziconduit	-12.0155
significant	-12.0155
Engine	-12.0156
listzinonempty	-12.0156
Advise	-12.0156
evidence	-12.0156
medication	-12.0157
eevrk	-12.0178
DISASSEMBL	-12.0193
▁vesicall	-12.0211
implzchainf	-12.0214
ENCODING	-12.0215
FOCUS	-12.0215
KEYMAPPING	-12.0215
Shadow	-12.0215
▁phongo	-12.0215
▁planiotop	-12.0215
▁ETMESSAGEFRAME	-12.0215
ngnucxx	-12.0221
VISIT	-12.0224
cepwxwindow	-12.0275
contribution	-12.0275
supplied	-12.0275
LEVEL	-12.0275
warehouse	-12.0275
▁EDITBTNT	-12.0275
tayazappenderxaa	-12.0275
jaxws	-12.0275
emphasis	-12.0275
TVARDATA	-12.0277
CHARTSOURCE	-12.029
combinedfssptr	-12.033
▁ParrotFixed	-12.0335
GLOBAL	-12.0335
congestion	-12.0335
hamlibportt	-12.0335
Commit	-12.0335
▁XSDBD	-12.0338
gossip	-12.0349
INITIALI	-12.0396
LINEOVERVIEW	-12.0396
polymorphic	-12.0396
▁camlFactorize	-12.0396
concatenation	-12.0396
▁ssirpi	-12.0396
SINGLE	-12.0396
Escape	-12.0396
WSSTDCTRLST	-12.0454
sortedrangetsstd	-12.0457
▁winestubDDX	-12.0457
Genomic	-12.0457
RECOGNISE	-12.0457
paderivingcommon	-12.0457
parenthesis	-12.0457
SEEK	-12.0457
SSIGNTPERSISTENT	-12.0458
accelerated	-12.0471
nivissim	-12.0518
uniformgridamr	-12.0518
subsumption	-12.0518
▁pyxtpnew	-12.0518
▁camlGenjava	-12.0518
Duplicate	-12.0518
hough	-12.0519
might	-12.052
ssignmentvectors	-12.0521
curricul	-12.0532
quickcheckzdf	-12.0535
anomaly	-12.058
▁MPIDICH	-12.058
amlDatatypesutil	-12.058
inquiry	-12.058
▁winestubFlt	-12.058
hastrivialde	-12.0608
▁pyxpwMACS	-12.0642
HEIGHT	-12.0642
▁commonswarming	-12.0642
▁latexmenuon	-12.0642
